{
  "version": "1.0",
  "truncation": null,
  "padding": null,
  "added_tokens": [
    {
      "id": 65527,
      "content": "<|bos|>",
      "single_word": false,
      "lstrip": false,
      "rstrip": false,
      "normalized": false,
      "special": true
    },
    {
      "id": 65528,
      "content": "<|user_start|>",
      "single_word": false,
      "lstrip": false,
      "rstrip": false,
      "normalized": false,
      "special": true
    },
    {
      "id": 65529,
      "content": "<|user_end|>",
      "single_word": false,
      "lstrip": false,
      "rstrip": false,
      "normalized": false,
      "special": true
    },
    {
      "id": 65530,
      "content": "<|assistant_start|>",
      "single_word": false,
      "lstrip": false,
      "rstrip": false,
      "normalized": false,
      "special": true
    },
    {
      "id": 65531,
      "content": "<|assistant_end|>",
      "single_word": false,
      "lstrip": false,
      "rstrip": false,
      "normalized": false,
      "special": true
    },
    {
      "id": 65532,
      "content": "<|python_start|>",
      "single_word": false,
      "lstrip": false,
      "rstrip": false,
      "normalized": false,
      "special": true
    },
    {
      "id": 65533,
      "content": "<|python_end|>",
      "single_word": false,
      "lstrip": false,
      "rstrip": false,
      "normalized": false,
      "special": true
    },
    {
      "id": 65534,
      "content": "<|output_start|>",
      "single_word": false,
      "lstrip": false,
      "rstrip": false,
      "normalized": false,
      "special": true
    },
    {
      "id": 65535,
      "content": "<|output_end|>",
      "single_word": false,
      "lstrip": false,
      "rstrip": false,
      "normalized": false,
      "special": true
    }
  ],
  "normalizer": null,
  "pre_tokenizer": {
    "type": "Sequence",
    "pretokenizers": [
      {
        "type": "Split",
        "pattern": {
          "Regex": "'(?i:[sdmt]|ll|ve|re)|[^\\r\\n\\p{L}\\p{N}]?+\\p{L}+|\\p{N}{1,2}| ?[^\\s\\p{L}\\p{N}]++[\\r\\n]*|\\s*[\\r\\n]|\\s+(?!\\S)|\\s+"
        },
        "behavior": "Isolated",
        "invert": false
      },
      {
        "type": "ByteLevel",
        "add_prefix_space": false,
        "trim_offsets": true,
        "use_regex": false
      }
    ]
  },
  "post_processor": {
    "type": "ByteLevel",
    "add_prefix_space": true,
    "trim_offsets": false,
    "use_regex": true
  },
  "decoder": {
    "type": "ByteLevel",
    "add_prefix_space": true,
    "trim_offsets": true,
    "use_regex": true
  },
  "model": {
    "type": "BPE",
    "dropout": null,
    "unk_token": null,
    "continuing_subword_prefix": null,
    "end_of_word_suffix": null,
    "fuse_unk": false,
    "byte_fallback": false,
    "ignore_merges": true,
    "vocab": {
      "Ā": 0,
      "ā": 1,
      "Ă": 2,
      "ă": 3,
      "Ą": 4,
      "ą": 5,
      "Ć": 6,
      "ć": 7,
      "Ĉ": 8,
      "ĉ": 9,
      "Ċ": 10,
      "ċ": 11,
      "Č": 12,
      "č": 13,
      "Ď": 14,
      "ď": 15,
      "Đ": 16,
      "đ": 17,
      "Ē": 18,
      "ē": 19,
      "Ĕ": 20,
      "ĕ": 21,
      "Ė": 22,
      "ė": 23,
      "Ę": 24,
      "ę": 25,
      "Ě": 26,
      "ě": 27,
      "Ĝ": 28,
      "ĝ": 29,
      "Ğ": 30,
      "ğ": 31,
      "Ġ": 32,
      "!": 33,
      "\"": 34,
      "#": 35,
      "$": 36,
      "%": 37,
      "&": 38,
      "'": 39,
      "(": 40,
      ")": 41,
      "*": 42,
      "+": 43,
      ",": 44,
      "-": 45,
      ".": 46,
      "/": 47,
      "0": 48,
      "1": 49,
      "2": 50,
      "3": 51,
      "4": 52,
      "5": 53,
      "6": 54,
      "7": 55,
      "8": 56,
      "9": 57,
      ":": 58,
      ";": 59,
      "<": 60,
      "=": 61,
      ">": 62,
      "?": 63,
      "@": 64,
      "A": 65,
      "B": 66,
      "C": 67,
      "D": 68,
      "E": 69,
      "F": 70,
      "G": 71,
      "H": 72,
      "I": 73,
      "J": 74,
      "K": 75,
      "L": 76,
      "M": 77,
      "N": 78,
      "O": 79,
      "P": 80,
      "Q": 81,
      "R": 82,
      "S": 83,
      "T": 84,
      "U": 85,
      "V": 86,
      "W": 87,
      "X": 88,
      "Y": 89,
      "Z": 90,
      "[": 91,
      "\\": 92,
      "]": 93,
      "^": 94,
      "_": 95,
      "`": 96,
      "a": 97,
      "b": 98,
      "c": 99,
      "d": 100,
      "e": 101,
      "f": 102,
      "g": 103,
      "h": 104,
      "i": 105,
      "j": 106,
      "k": 107,
      "l": 108,
      "m": 109,
      "n": 110,
      "o": 111,
      "p": 112,
      "q": 113,
      "r": 114,
      "s": 115,
      "t": 116,
      "u": 117,
      "v": 118,
      "w": 119,
      "x": 120,
      "y": 121,
      "z": 122,
      "{": 123,
      "|": 124,
      "}": 125,
      "~": 126,
      "ġ": 127,
      "Ģ": 128,
      "ģ": 129,
      "Ĥ": 130,
      "ĥ": 131,
      "Ħ": 132,
      "ħ": 133,
      "Ĩ": 134,
      "ĩ": 135,
      "Ī": 136,
      "ī": 137,
      "Ĭ": 138,
      "ĭ": 139,
      "Į": 140,
      "į": 141,
      "İ": 142,
      "ı": 143,
      "Ĳ": 144,
      "ĳ": 145,
      "Ĵ": 146,
      "ĵ": 147,
      "Ķ": 148,
      "ķ": 149,
      "ĸ": 150,
      "Ĺ": 151,
      "ĺ": 152,
      "Ļ": 153,
      "ļ": 154,
      "Ľ": 155,
      "ľ": 156,
      "Ŀ": 157,
      "ŀ": 158,
      "Ł": 159,
      "ł": 160,
      "¡": 161,
      "¢": 162,
      "£": 163,
      "¤": 164,
      "¥": 165,
      "¦": 166,
      "§": 167,
      "¨": 168,
      "©": 169,
      "ª": 170,
      "«": 171,
      "¬": 172,
      "Ń": 173,
      "®": 174,
      "¯": 175,
      "°": 176,
      "±": 177,
      "²": 178,
      "³": 179,
      "´": 180,
      "µ": 181,
      "¶": 182,
      "·": 183,
      "¸": 184,
      "¹": 185,
      "º": 186,
      "»": 187,
      "¼": 188,
      "½": 189,
      "¾": 190,
      "¿": 191,
      "À": 192,
      "Á": 193,
      "Â": 194,
      "Ã": 195,
      "Ä": 196,
      "Å": 197,
      "Æ": 198,
      "Ç": 199,
      "È": 200,
      "É": 201,
      "Ê": 202,
      "Ë": 203,
      "Ì": 204,
      "Í": 205,
      "Î": 206,
      "Ï": 207,
      "Ð": 208,
      "Ñ": 209,
      "Ò": 210,
      "Ó": 211,
      "Ô": 212,
      "Õ": 213,
      "Ö": 214,
      "×": 215,
      "Ø": 216,
      "Ù": 217,
      "Ú": 218,
      "Û": 219,
      "Ü": 220,
      "Ý": 221,
      "Þ": 222,
      "ß": 223,
      "à": 224,
      "á": 225,
      "â": 226,
      "ã": 227,
      "ä": 228,
      "å": 229,
      "æ": 230,
      "ç": 231,
      "è": 232,
      "é": 233,
      "ê": 234,
      "ë": 235,
      "ì": 236,
      "í": 237,
      "î": 238,
      "ï": 239,
      "ð": 240,
      "ñ": 241,
      "ò": 242,
      "ó": 243,
      "ô": 244,
      "õ": 245,
      "ö": 246,
      "÷": 247,
      "ø": 248,
      "ù": 249,
      "ú": 250,
      "û": 251,
      "ü": 252,
      "ý": 253,
      "þ": 254,
      "ÿ": 255,
      "Ġt": 256,
      "Ġa": 257,
      "he": 258,
      "in": 259,
      "re": 260,
      "Ġthe": 261,
      "on": 262,
      "er": 263,
      "Ġs": 264,
      "at": 265,
      "Ġo": 266,
      "Ġc": 267,
      "en": 268,
      "es": 269,
      "Ġw": 270,
      "is": 271,
      "nd": 272,
      "it": 273,
      "or": 274,
      "Ġp": 275,
      "al": 276,
      "Ġb": 277,
      "Ġf": 278,
      "an": 279,
      "ed": 280,
      "Ġof": 281,
      "ing": 282,
      "Ġin": 283,
      "ou": 284,
      "ar": 285,
      "Ġm": 286,
      "Ġto": 287,
      "Ġand": 288,
      "ic": 289,
      "Ġd": 290,
      "ion": 291,
      "le": 292,
      "ro": 293,
      "as": 294,
      "Ġh": 295,
      "Ġth": 296,
      "ent": 297,
      "ct": 298,
      "Ġe": 299,
      "il": 300,
      "Ġre": 301,
      "ve": 302,
      "om": 303,
      "Ġl": 304,
      "st": 305,
      "Ġn": 306,
      ".Ċ": 307,
      "âĢ": 308,
      "Ġis": 309,
      "ly": 310,
      "Ġbe": 311,
      "se": 312,
      "Ġg": 313,
      "ĠT": 314,
      "ol": 315,
      "ation": 316,
      "im": 317,
      "id": 318,
      "et": 319,
      "ut": 320,
      "ur": 321,
      "ow": 322,
      "ce": 323,
      "ot": 324,
      "ra": 325,
      "ch": 326,
      "Ġfor": 327,
      "ig": 328,
      "Ġu": 329,
      "Ġy": 330,
      "Ġon": 331,
      "Ġthat": 332,
      "Ġst": 333,
      "ĠA": 334,
      "ver": 335,
      "ĠS": 336,
      "ir": 337,
      "ĠI": 338,
      "ay": 339,
      "ul": 340,
      "ĠC": 341,
      "am": 342,
      "Ġas": 343,
      "ith": 344,
      "Ġare": 345,
      "el": 346,
      "Ġpro": 347,
      "Ġyou": 348,
      "ad": 349,
      "her": 350,
      "Ġan": 351,
      "Ġcon": 352,
      "Ġwith": 353,
      "if": 354,
      "Ġor": 355,
      "Ġit": 356,
      "Ġwh": 357,
      "Ġal": 358,
      "od": 359,
      "ter": 360,
      "ĠThe": 361,
      "ge": 362,
      "ment": 363,
      "th": 364,
      "ĠM": 365,
      "op": 366,
      "ate": 367,
      "ers": 368,
      "ess": 369,
      "ill": 370,
      "Ġde": 371,
      "Ġ(": 372,
      "ist": 373,
      "âĢĻ": 374,
      "Ġhe": 375,
      "ies": 376,
      "ĠP": 377,
      "ab": 378,
      "Ġex": 379,
      "ore": 380,
      "Ġsu": 381,
      "ect": 382,
      "Ġcom": 383,
      "Ġwe": 384,
      "us": 385,
      "Ġha": 386,
      "ity": 387,
      "ĠB": 388,
      "est": 389,
      "ive": 390,
      "ke": 391,
      "ac": 392,
      "res": 393,
      "um": 394,
      "rom": 395,
      "Ġv": 396,
      "ld": 397,
      "ant": 398,
      "os": 399,
      "Ġcan": 400,
      "qu": 401,
      "em": 402,
      "Ġby": 403,
      "nt": 404,
      "iv": 405,
      "ain": 406,
      "ĠH": 407,
      "Ġat": 408,
      "igh": 409,
      "ĠW": 410,
      "pp": 411,
      "Ġch": 412,
      "ud": 413,
      "Ġfrom": 414,
      "Ġne": 415,
      "Ġr": 416,
      "ort": 417,
      "oc": 418,
      "and": 419,
      "ĠD": 420,
      "Ġwas": 421,
      "ĠE": 422,
      "Ġse": 423,
      "ial": 424,
      "ĠâĢ": 425,
      "ure": 426,
      "Ġle": 427,
      "ĠF": 428,
      "un": 429,
      "ĠR": 430,
      "art": 431,
      "Ġhave": 432,
      "ical": 433,
      "Ġnot": 434,
      "Ġen": 435,
      "Ġsh": 436,
      "og": 437,
      "Ġsp": 438,
      "ĠN": 439,
      "ri": 440,
      "Ġthis": 441,
      "ĠG": 442,
      "âĢĻs": 443,
      "Ġwor": 444,
      "Ġab": 445,
      "ĠL": 446,
      "ight": 447,
      "rou": 448,
      "The": 449,
      "all": 450,
      "pt": 451,
      "ost": 452,
      "ome": 453,
      "red": 454,
      "du": 455,
      "out": 456,
      "ich": 457,
      "ions": 458,
      "gh": 459,
      "our": 460,
      "Ġim": 461,
      "ould": 462,
      "Ġus": 463,
      "Ġpl": 464,
      "per": 465,
      "ine": 466,
      "ther": 467,
      "Ġyour": 468,
      "ated": 469,
      "ide": 470,
      "ag": 471,
      "act": 472,
      "Ġtheir": 473,
      "ell": 474,
      "ard": 475,
      "ff": 476,
      "ear": 477,
      "Ġint": 478,
      "pl": 479,
      "ast": 480,
      "age": 481,
      "ak": 482,
      "Ġk": 483,
      "Ġwhe": 484,
      "ans": 485,
      "Ġthey": 486,
      "ood": 487,
      "ust": 488,
      "ĠO": 489,
      "Ġwill": 490,
      "Ġwhich": 491,
      "ec": 492,
      "ous": 493,
      "iz": 494,
      "Ġad": 495,
      "20": 496,
      "Ġinc": 497,
      "Ġmore": 498,
      "ult": 499,
      "Ġall": 500,
      "ĠU": 501,
      "Ġcont": 502,
      "Ġdis": 503,
      "cc": 504,
      "Ġcomp": 505,
      "end": 506,
      "âĢĿ": 507,
      "ib": 508,
      "ru": 509,
      "vel": 510,
      "Ġhas": 511,
      "ong": 512,
      "ap": 513,
      "ĠIn": 514,
      "Ġres": 515,
      "ip": 516,
      "so": 517,
      "ater": 518,
      "Ġdo": 519,
      "ild": 520,
      "orm": 521,
      "ations": 522,
      "ere": 523,
      "ia": 524,
      "are": 525,
      "ew": 526,
      "ĠJ": 527,
      "able": 528,
      "ks": 529,
      "ĠTh": 530,
      "Ġcl": 531,
      "Ġman": 532,
      "ary": 533,
      "Ġother": 534,
      "Ġte": 535,
      "ally": 536,
      "ence": 537,
      "ents": 538,
      "ry": 539,
      "Ġbut": 540,
      "ind": 541,
      "Ġimp": 542,
      "Ġalso": 543,
      "ep": 544,
      "ach": 545,
      "ake": 546,
      "Ġper": 547,
      "19": 548,
      "ĠâĢľ": 549,
      "Ġone": 550,
      "Ġme": 551,
      "reat": 552,
      "ance": 553,
      "ose": 554,
      "ign": 555,
      "ase": 556,
      "Ġwere": 557,
      "ass": 558,
      "Ġj": 559,
      "Ġso": 560,
      "au": 561,
      "Ġout": 562,
      "Ġstud": 563,
      "av": 564,
      "ress": 565,
      "'s": 566,
      "Ġabout": 567,
      "very": 568,
      "one": 569,
      "ition": 570,
      "ction": 571,
      "Ġtim": 572,
      "ice": 573,
      "Ġun": 574,
      "Ġapp": 575,
      "ace": 576,
      "Ġpart": 577,
      "Ġpe": 578,
      "ok": 579,
      "Ġar": 580,
      "ount": 581,
      "Ġinf": 582,
      "Ġev": 583,
      "ber": 584,
      "ens": 585,
      "ory": 586,
      "ord": 587,
      "Ġsy": 588,
      "ack": 589,
      "Ġsc": 590,
      "ike": 591,
      "ire": 592,
      "ame": 593,
      "Ġwho": 594,
      "ors": 595,
      "ish": 596,
      "Ġcomm": 597,
      "ite": 598,
      "Ġthem": 599,
      "ang": 600,
      "ue": 601,
      "ĠSt": 602,
      "now": 603,
      "ound": 604,
      "ces": 605,
      "low": 606,
      "Ġpre": 607,
      "ub": 608,
      "ĠIt": 609,
      "ree": 610,
      "Ġup": 611,
      "Ġbec": 612,
      "ople": 613,
      "ric": 614,
      "olog": 615,
      "Ġmay": 616,
      "Ġthan": 617,
      "ays": 618,
      "Ġqu": 619,
      "iff": 620,
      "ile": 621,
      "Ġyear": 622,
      "Ġsome": 623,
      "Ġrec": 624,
      "Ġwhen": 625,
      "Ġhis": 626,
      "ie": 627,
      "ail": 628,
      "ĠK": 629,
      "ings": 630,
      "ates": 631,
      "nder": 632,
      "Ġwork": 633,
      "Ġhow": 634,
      "ren": 635,
      "Ġinto": 636,
      "Ġpeople": 637,
      "Ġbeen": 638,
      "Ġtra": 639,
      "Ġtime": 640,
      "Ġthere": 641,
      "mer": 642,
      "Ġits": 643,
      "Ġgo": 644,
      "Ġover": 645,
      "ough": 646,
      "ĠThis": 647,
      "rit": 648,
      "Ġdiff": 649,
      "Ġuse": 650,
      "Ġthese": 651,
      "Ġro": 652,
      "rough": 653,
      "Ġcol": 654,
      "lud": 655,
      "alth": 656,
      "ĠCh": 657,
      "ause": 658,
      "Ġour": 659,
      "ph": 660,
      "vers": 661,
      "Ġag": 662,
      "ual": 663,
      "erv": 664,
      "Ġlike": 665,
      "te": 666,
      "ian": 667,
      "ms": 668,
      "Ġmost": 669,
      "Ġsa": 670,
      "ons": 671,
      "Ġcons": 672,
      "Ġra": 673,
      "Ġbl": 674,
      "Ġknow": 675,
      "Ġhel": 676,
      "Ġact": 677,
      "Ġ\"": 678,
      "Ġbet": 679,
      "ific": 680,
      "ook": 681,
      "ove": 682,
      "ll": 683,
      "row": 684,
      "ning": 685,
      "Ġneed": 686,
      "int": 687,
      "ities": 688,
      "ond": 689,
      "irst": 690,
      "Ġtr": 691,
      "tern": 692,
      "we": 693,
      "ys": 694,
      "velop": 695,
      "les": 696,
      "Ġunder": 697,
      "Ġnew": 698,
      "Ġchild": 699,
      "ject": 700,
      "lect": 701,
      "ĠV": 702,
      "Ġacc": 703,
      "stem": 704,
      "ments": 705,
      "Ġhelp": 706,
      "Ġdes": 707,
      "ffect": 708,
      "lic": 709,
      "ious": 710,
      "ĠY": 711,
      "Ġif": 712,
      "Ġsuch": 713,
      "Ġinclud": 714,
      "Ġtw": 715,
      "ient": 716,
      "Ġwould": 717,
      "Ġhad": 718,
      "cess": 719,
      "ool": 720,
      "ple": 721,
      "Ġrel": 722,
      "Ġwhat": 723,
      "Ġused": 724,
      "ob": 725,
      "Ġany": 726,
      "Ġrep": 727,
      "yp": 728,
      "ating": 729,
      "Ġprodu": 730,
      "Ġgen": 731,
      "Ġph": 732,
      "Ġmany": 733,
      "ular": 734,
      "Ġdevelop": 735,
      "ational": 736,
      "10": 737,
      "hed": 738,
      "ative": 739,
      "Ġfe": 740,
      "Ġthrough": 741,
      "Ġprov": 742,
      "Ġpr": 743,
      "round": 744,
      "ced": 745,
      "Ġfirst": 746,
      "Ġonly": 747,
      "Ġspec": 748,
      "Ġdi": 749,
      "ov": 750,
      "Ġoff": 751,
      "Ġam": 752,
      "Ġind": 753,
      "Ġac": 754,
      "ise": 755,
      "ics": 756,
      "uring": 757,
      "ark": 758,
      "Ġdiffere": 759,
      "Ġsystem": 760,
      "oss": 761,
      "uc": 762,
      "Ġno": 763,
      "ful": 764,
      "eth": 765,
      "ink": 766,
      "fter": 767,
      "Ġem": 768,
      "Ġpo": 769,
      "ath": 770,
      "ĠUn": 771,
      "ĠâĢĵ": 772,
      "hen": 773,
      "ts": 774,
      "Ġreg": 775,
      "Ġtwo": 776,
      "Ġexp": 777,
      "oth": 778,
      "als": 779,
      "Ġadd": 780,
      "Ġwater": 781,
      "ten": 782,
      "ne": 783,
      "rib": 784,
      "Ġhealth": 785,
      "Ġdec": 786,
      "ange": 787,
      "erm": 788,
      "ility": 789,
      "iss": 790,
      "?Ċ": 791,
      "Ġsur": 792,
      "rop": 793,
      "ased": 794,
      "ible": 795,
      "old": 796,
      "ble": 797,
      "Ġwell": 798,
      "Ġob": 799,
      "Ġfl": 800,
      "arch": 801,
      "ures": 802,
      "ife": 803,
      ").": 804,
      "In": 805,
      "ower": 806,
      "Ġshould": 807,
      "Ġass": 808,
      "),": 809,
      "Ġatt": 810,
      "Ġyears": 811,
      "18": 812,
      "ram": 813,
      "own": 814,
      "ract": 815,
      "Ġ-": 816,
      "Ġsm": 817,
      "Ġrese": 818,
      "fore": 819,
      "ng": 820,
      "Ġsupp": 821,
      "Ġrem": 822,
      "Ġget": 823,
      "Ġco": 824,
      "ert": 825,
      "ween": 826,
      "Ġhigh": 827,
      "Ġinv": 828,
      "Ġmake": 829,
      ":Ċ": 830,
      "ick": 831,
      "wn": 832,
      "gan": 833,
      "its": 834,
      "hes": 835,
      "Ġcould": 836,
      "chool": 837,
      "ĠHe": 838,
      "chn": 839,
      "ade": 840,
      "Ġwhere": 841,
      "Ġimport": 842,
      "Ġsub": 843,
      "Ġbetween": 844,
      "Ġbu": 845,
      "âĢĻt": 846,
      "00": 847,
      "ily": 848,
      "ants": 849,
      "cy": 850,
      "Ġpres": 851,
      "ting": 852,
      "Ġlear": 853,
      "ever": 854,
      "ied": 855,
      "sel": 856,
      "uch": 857,
      "ution": 858,
      "ience": 859,
      "xt": 860,
      "Ġpers": 861,
      "hat": 862,
      "Ġear": 863,
      "ology": 864,
      "Ġtrans": 865,
      "ural": 866,
      "Ġexam": 867,
      "Ġform": 868,
      "Ġnum": 869,
      "form": 870,
      "Ġdifferent": 871,
      "ss": 872,
      "ident": 873,
      "Ġher": 874,
      "meric": 875,
      "Ġinst": 876,
      "ually": 877,
      "ines": 878,
      "Ġmod": 879,
      "Ġcar": 880,
      "ata": 881,
      "ists": 882,
      "Ġfound": 883,
      "Ġworld": 884,
      "iet": 885,
      "Ġdisc": 886,
      "Ġexper": 887,
      "ins": 888,
      "aw": 889,
      "gy": 890,
      "Ġinter": 891,
      "ef": 892,
      "Ġlong": 893,
      "Ġmed": 894,
      "Ġtyp": 895,
      "Ġpol": 896,
      "ited": 897,
      "Ġsim": 898,
      "land": 899,
      "ness": 900,
      "Ġbecause": 901,
      "Ġeffect": 902,
      "Ġway": 903,
      "Ġjust": 904,
      "Ġlar": 905,
      "Ġeven": 906,
      "Ġvery": 907,
      "Ġinform": 908,
      "aking": 909,
      "Ġincre": 910,
      "ict": 911,
      "ron": 912,
      "Ġke": 913,
      "get": 914,
      "Ġcount": 915,
      "Ġcent": 916,
      "Ġafter": 917,
      "Ġthen": 918,
      "ft": 919,
      "ature": 920,
      "Ġed": 921,
      "Ġdet": 922,
      "ck": 923,
      "Ġhum": 924,
      "Ġsaid": 925,
      "Ġchildren": 926,
      "vent": 927,
      "Ġsee": 928,
      "ically": 929,
      "Ġvar": 930,
      "Ġsign": 931,
      "urn": 932,
      "other": 933,
      "oy": 934,
      "ives": 935,
      "Ġevery": 936,
      "Ġprocess": 937,
      "ĠAmeric": 938,
      "cept": 939,
      "Ġprog": 940,
      "Ġresp": 941,
      "cer": 942,
      "Ġtechn": 943,
      "ivers": 944,
      "Ġimportant": 945,
      "Ġgener": 946,
      "ases": 947,
      "Ġca": 948,
      "Ġpat": 949,
      "Ġcall": 950,
      "Ġthose": 951,
      "arm": 952,
      "iron": 953,
      "Ġgra": 954,
      "ody": 955,
      "Th": 956,
      "Ġstudents": 957,
      "Ġref": 958,
      "ollow": 959,
      "Ġresult": 960,
      "Ġeach": 961,
      "Ġfood": 962,
      "Ġext": 963,
      "ism": 964,
      "Ġpub": 965,
      "ds": 966,
      "Ġsoc": 967,
      "Ġsk": 968,
      "Ġloc": 969,
      ".âĢĿ": 970,
      "Ġfact": 971,
      "ues": 972,
      "Ġbeing": 973,
      "ages": 974,
      "iew": 975,
      "Ġlife": 976,
      "Ġcre": 977,
      "ruct": 978,
      "Ġrequ": 979,
      "Ġmuch": 980,
      "Ġcommun": 981,
      "Ġread": 982,
      "Ġsec": 983,
      "led": 984,
      "con": 985,
      "Ġpartic": 986,
      "ps": 987,
      "Ġset": 988,
      "Ġmon": 989,
      "cent": 990,
      "omm": 991,
      "Ġfam": 992,
      "Ġinformation": 993,
      "Ġart": 994,
      "Ġgrow": 995,
      "Ġstudy": 996,
      "tle": 997,
      "Ġduring": 998,
      "Ġshe": 999,
      "ork": 1000,
      "Ġlead": 1001,
      "Ġlevel": 1002,
      "Ġdep": 1003,
      "ĠThey": 1004,
      "Ġproble": 1005,
      "ĠWe": 1006,
      "Ġfind": 1007,
      "ices": 1008,
      "Ġdata": 1009,
      "Ġdist": 1010,
      "Ġschool": 1011,
      "Ġent": 1012,
      "ather": 1013,
      "Ġdoes": 1014,
      "ize": 1015,
      "Ġdef": 1016,
      "ĠAl": 1017,
      "Ġown": 1018,
      "Ġcur": 1019,
      "Ġperson": 1020,
      "gg": 1021,
      "Ġfollow": 1022,
      "Ġche": 1023,
      ")Ċ": 1024,
      "ized": 1025,
      "ĠIf": 1026,
      "ward": 1027,
      "Ġgood": 1028,
      "ĠPro": 1029,
      "Ġav": 1030,
      "any": 1031,
      "Ġback": 1032,
      "Ġaut": 1033,
      "Ġusing": 1034,
      "viron": 1035,
      "ĠAs": 1036,
      "Ġright": 1037,
      "12": 1038,
      "Ġsame": 1039,
      "Ġmin": 1040,
      "Ġins": 1041,
      "Ġmade": 1042,
      "stand": 1043,
      "ection": 1044,
      "Ġmy": 1045,
      "Ġgl": 1046,
      "Ġexpl": 1047,
      "Ġstr": 1048,
      "Ġtest": 1049,
      "Ġhist": 1050,
      "Ġshow": 1051,
      "Ġdise": 1052,
      "Ġend": 1053,
      "ved": 1054,
      "read": 1055,
      "vern": 1056,
      "io": 1057,
      "Ġoften": 1058,
      "Ġsmall": 1059,
      "Ġbo": 1060,
      "Ġpop": 1061,
      "ergy": 1062,
      "eg": 1063,
      "Ġboth": 1064,
      "Ġsol": 1065,
      "hip": 1066,
      "ale": 1067,
      "Ġtreat": 1068,
      "Ġcomple": 1069,
      "ality": 1070,
      "Ġresearch": 1071,
      "ted": 1072,
      "Ġbefore": 1073,
      "Ġless": 1074,
      "ially": 1075,
      "Ġmain": 1076,
      "Ġgrou": 1077,
      "ĠHow": 1078,
      "Ġris": 1079,
      "akes": 1080,
      "Ġtake": 1081,
      "Ġday": 1082,
      "und": 1083,
      "Ġbody": 1084,
      "ock": 1085,
      "ivid": 1086,
      "imate": 1087,
      "orn": 1088,
      "15": 1089,
      "ĠFor": 1090,
      "Ġprot": 1091,
      "omen": 1092,
      "iel": 1093,
      "Ġwhile": 1094,
      "Ġaround": 1095,
      "hers": 1096,
      "ince": 1097,
      "vironment": 1098,
      "ĠAn": 1099,
      "ars": 1100,
      "ien": 1101,
      "ined": 1102,
      "Ġval": 1103,
      "the": 1104,
      "Ġlit": 1105,
      "Ġbr": 1106,
      "nce": 1107,
      "rol": 1108,
      "Ġvis": 1109,
      "Ġdesign": 1110,
      "Ġnumber": 1111,
      "Ġfun": 1112,
      "ix": 1113,
      "ex": 1114,
      "Ġstart": 1115,
      "ute": 1116,
      "Ġnow": 1117,
      "ty": 1118,
      "der": 1119,
      "Ġposs": 1120,
      "ished": 1121,
      "ides": 1122,
      "Ġcommon": 1123,
      "inal": 1124,
      "Ġcell": 1125,
      "Ġocc": 1126,
      "Ġstate": 1127,
      "Ġlook": 1128,
      "Ġactiv": 1129,
      "Ġdown": 1130,
      "Ġredu": 1131,
      "Ġclass": 1132,
      "iqu": 1133,
      "Ġpower": 1134,
      "Ġorgan": 1135,
      "Ġma": 1136,
      "dition": 1137,
      "This": 1138,
      "Ġserv": 1139,
      "ĠInd": 1140,
      "ĠCon": 1141,
      "ral": 1142,
      "Ġhand": 1143,
      "iving": 1144,
      "iety": 1145,
      "day": 1146,
      "Ġagain": 1147,
      "Ġmem": 1148,
      "ĠAr": 1149,
      "ury": 1150,
      "ĠSp": 1151,
      "ier": 1152,
      "irect": 1153,
      "ulation": 1154,
      "ves": 1155,
      "Ġplan": 1156,
      "Ġthree": 1157,
      "up": 1158,
      ",âĢĿ": 1159,
      "Ġsupport": 1160,
      "Ġhuman": 1161,
      "Ġelect": 1162,
      "Ġchar": 1163,
      "..": 1164,
      "air": 1165,
      "ital": 1166,
      "iversity": 1167,
      "ĠSc": 1168,
      "Ġcle": 1169,
      "ĠYou": 1170,
      "ium": 1171,
      "Ġbel": 1172,
      "Ġcare": 1173,
      "rain": 1174,
      "oh": 1175,
      "rent": 1176,
      "ger": 1177,
      "ters": 1178,
      "ains": 1179,
      "Ġwrit": 1180,
      "ving": 1181,
      "Ġexample": 1182,
      "17": 1183,
      "||": 1184,
      "Ġunderstand": 1185,
      "Ġpoint": 1186,
      "ĠNew": 1187,
      "ered": 1188,
      "Ġser": 1189,
      "ven": 1190,
      "-b": 1191,
      "acter": 1192,
      "Ġlarge": 1193,
      "ead": 1194,
      "Ġincluding": 1195,
      "ave": 1196,
      "Ġmust": 1197,
      "Ġconf": 1198,
      "Ġland": 1199,
      "Ġallow": 1200,
      "Ġbuild": 1201,
      "Ġgreat": 1202,
      "11": 1203,
      "Ġreport": 1204,
      "Ġeduc": 1205,
      "ids": 1206,
      "ross": 1207,
      "ĠBut": 1208,
      "uss": 1209,
      "Ġdr": 1210,
      "cl": 1211,
      "Ġest": 1212,
      "âĢľ": 1213,
      "oms": 1214,
      "Ġknown": 1215,
      "Ġeas": 1216,
      "ional": 1217,
      "âĢĶ": 1218,
      "aterial": 1219,
      "Ġcalled": 1220,
      "itions": 1221,
      "ull": 1222,
      "Ġcontin": 1223,
      "Ġadv": 1224,
      "ouse": 1225,
      "Ġsom": 1226,
      "gen": 1227,
      "Ġop": 1228,
      "16": 1229,
      "Ġcor": 1230,
      "Ġmet": 1231,
      "-s": 1232,
      "Ġequ": 1233,
      "Ġlearn": 1234,
      "reen": 1235,
      "Ġenergy": 1236,
      "Ġbeh": 1237,
      "way": 1238,
      "Ġgovern": 1239,
      "ets": 1240,
      "outh": 1241,
      "ĠThere": 1242,
      "anc": 1243,
      "ared": 1244,
      "Ġcaus": 1245,
      "iver": 1246,
      "Ġpract": 1247,
      "Ġdid": 1248,
      "ash": 1249,
      "Ġthink": 1250,
      "Ġthough": 1251,
      "Ġcour": 1252,
      "Ġstill": 1253,
      "ential": 1254,
      "Ġenvironment": 1255,
      ").Ċ": 1256,
      "Ġquest": 1257,
      "Ġconst": 1258,
      "ĠâĢĺ": 1259,
      "self": 1260,
      "ries": 1261,
      "com": 1262,
      "Ġfew": 1263,
      "ividual": 1264,
      "ering": 1265,
      "Ġide": 1266,
      "Ġgu": 1267,
      "ources": 1268,
      "ected": 1269,
      "ah": 1270,
      "els": 1271,
      "ee": 1272,
      "Ġmight": 1273,
      "iod": 1274,
      "ired": 1275,
      "Ġsym": 1276,
      "itive": 1277,
      "Ġwant": 1278,
      "ĠThese": 1279,
      "Ġchange": 1280,
      "Ġpublic": 1281,
      "Ġhim": 1282,
      "Ġplace": 1283,
      "Ġdisease": 1284,
      "Ġchang": 1285,
      "30": 1286,
      "Ġproduct": 1287,
      "Ġproject": 1288,
      "Ġret": 1289,
      "Ġlight": 1290,
      "iven": 1291,
      "Ġtem": 1292,
      "ording": 1293,
      "Ġdon": 1294,
      "angu": 1295,
      "Ġimpro": 1296,
      "agn": 1297,
      "Ġmaterial": 1298,
      "Ġplay": 1299,
      "Ġphys": 1300,
      "Ġappro": 1301,
      "erest": 1302,
      "Ġstand": 1303,
      "raph": 1304,
      "ĠWh": 1305,
      "eng": 1306,
      "osed": 1307,
      "Ġmat": 1308,
      "conom": 1309,
      "ĠAnd": 1310,
      "ax": 1311,
      "oci": 1312,
      "Ġbre": 1313,
      "line": 1314,
      "ption": 1315,
      "lish": 1316,
      "Ġprof": 1317,
      "illion": 1318,
      "Ġben": 1319,
      "Ġair": 1320,
      "Ġpot": 1321,
      "Ġdevelopment": 1322,
      "Ġiss": 1323,
      "Ġve": 1324,
      "alk": 1325,
      "Ġblood": 1326,
      "ination": 1327,
      "Ġpur": 1328,
      "Ġindividual": 1329,
      "de": 1330,
      "Ġeng": 1331,
      "inc": 1332,
      "14": 1333,
      "arent": 1334,
      "Ġwithin": 1335,
      "bers": 1336,
      "Ġpresent": 1337,
      "Ġhome": 1338,
      "me": 1339,
      "esp": 1340,
      "Ġrisk": 1341,
      "iness": 1342,
      "ffic": 1343,
      "It": 1344,
      "13": 1345,
      "bs": 1346,
      "Ġimm": 1347,
      "Ġpain": 1348,
      "Ġarea": 1349,
      "ĠEng": 1350,
      "ization": 1351,
      "50": 1352,
      "Ġinclude": 1353,
      "Ġwithout": 1354,
      "Ġmeth": 1355,
      "Ġbest": 1356,
      "ason": 1357,
      "Ġident": 1358,
      "ank": 1359,
      "ior": 1360,
      "ertain": 1361,
      "ration": 1362,
      "Ġdem": 1363,
      "ense": 1364,
      "ental": 1365,
      "Ġmus": 1366,
      "Ġwomen": 1367,
      "Ġsit": 1368,
      "oun": 1369,
      "ime": 1370,
      "Ġsl": 1371,
      "Ġcap": 1372,
      "less": 1373,
      "arc": 1374,
      "Ġsocial": 1375,
      "erc": 1376,
      "Ġdirect": 1377,
      "ĠUniversity": 1378,
      "ills": 1379,
      "rodu": 1380,
      "Ġmeas": 1381,
      "Ġess": 1382,
      "jor": 1383,
      "ider": 1384,
      "ĠIs": 1385,
      "atural": 1386,
      "Ġbetter": 1387,
      "Ġanother": 1388,
      "ability": 1389,
      "'t": 1390,
      "Ġpass": 1391,
      "ify": 1392,
      "Ġbecome": 1393,
      "Ġbas": 1394,
      "Ġkeep": 1395,
      ".\"": 1396,
      "Ġpos": 1397,
      "ner": 1398,
      "ĠAmerican": 1399,
      "Ġanim": 1400,
      "Ġant": 1401,
      "Ġprogram": 1402,
      "Ġmark": 1403,
      "ield": 1404,
      "Ġcause": 1405,
      "to": 1406,
      ".âĢĿĊ": 1407,
      "ource": 1408,
      "ived": 1409,
      "ats": 1410,
      ".,": 1411,
      "Ġcult": 1412,
      "Ġanal": 1413,
      "ining": 1414,
      "Ġlow": 1415,
      "Ġold": 1416,
      "Ġearly": 1417,
      "orth": 1418,
      "Ġinterest": 1419,
      "ware": 1420,
      "Ġtop": 1421,
      "Ġbelie": 1422,
      "Ġlearning": 1423,
      "ently": 1424,
      "ton": 1425,
      "Ġsever": 1426,
      "Ġproper": 1427,
      "Ġcontrol": 1428,
      "ways": 1429,
      "ified": 1430,
      "ological": 1431,
      "eral": 1432,
      "Ġhistory": 1433,
      "-f": 1434,
      "Ġtre": 1435,
      "Ġeconom": 1436,
      "Ġrest": 1437,
      "Ġmove": 1438,
      "gin": 1439,
      "ris": 1440,
      "ccess": 1441,
      "What": 1442,
      "Ġprovide": 1443,
      "Ġopp": 1444,
      "Ġtoo": 1445,
      "Ġlast": 1446,
      "Ġsaf": 1447,
      "here": 1448,
      "Ġpercent": 1449,
      "Ġmethod": 1450,
      "Ġdesc": 1451,
      "Ġmeans": 1452,
      "ĠâĢĶ": 1453,
      "ĠHowever": 1454,
      "lished": 1455,
      "ories": 1456,
      "man": 1457,
      "Ġoccur": 1458,
      "Ġplant": 1459,
      "eed": 1460,
      "Ġlangu": 1461,
      "ients": 1462,
      "Ġavail": 1463,
      "rap": 1464,
      "atic": 1465,
      "ĠAd": 1466,
      "Ġdev": 1467,
      "ians": 1468,
      "Ġfamily": 1469,
      "Ġreal": 1470,
      "Ġscient": 1471,
      "Ġhere": 1472,
      "Ġcurrent": 1473,
      "Ġfore": 1474,
      "Ġleg": 1475,
      "Ġmajor": 1476,
      "Ġaffect": 1477,
      "hor": 1478,
      "Ġmil": 1479,
      "Ġsecond": 1480,
      "ards": 1481,
      "Ġbenef": 1482,
      "ern": 1483,
      "ĠDe": 1484,
      "Ġable": 1485,
      "Ġgroup": 1486,
      "ained": 1487,
      "Ġindu": 1488,
      "Ġele": 1489,
      "ĠWhen": 1490,
      "Ġsays": 1491,
      "Ġinfl": 1492,
      "Ġperform": 1493,
      "ples": 1494,
      "Ġoper": 1495,
      "Ġfeel": 1496,
      "Ġ&": 1497,
      "ug": 1498,
      "Ġcal": 1499,
      "Ġspecies": 1500,
      "use": 1501,
      "Ġhapp": 1502,
      "Ġwar": 1503,
      "Ġbus": 1504,
      "Ġnear": 1505,
      "Ġpossible": 1506,
      "Ġorder": 1507,
      "Ġseveral": 1508,
      "az": 1509,
      "oid": 1510,
      "Ġparticular": 1511,
      "ision": 1512,
      "Ġinvol": 1513,
      "Ġpar": 1514,
      "Ġmean": 1515,
      "ograph": 1516,
      "Ġaddition": 1517,
      "ik": 1518,
      "Ġfin": 1519,
      "Ġhig": 1520,
      "Ġperiod": 1521,
      "ĠSh": 1522,
      "ĠRe": 1523,
      "Ġgovernment": 1524,
      "icle": 1525,
      "ention": 1526,
      "Ġsay": 1527,
      "Ġareas": 1528,
      "Ġcost": 1529,
      "tt": 1530,
      "ĠPh": 1531,
      "ission": 1532,
      "ĠUnited": 1533,
      "Ġthings": 1534,
      "ots": 1535,
      "ĠEx": 1536,
      "Ġprevent": 1537,
      "Ġter": 1538,
      "ocus": 1539,
      "ĠRes": 1540,
      "cle": 1541,
      "aper": 1542,
      "view": 1543,
      "Ġunt": 1544,
      "amp": 1545,
      "Ġwee": 1546,
      "Ġagainst": 1547,
      "Ġopen": 1548,
      "ote": 1549,
      "ogn": 1550,
      "pect": 1551,
      "Ġlaw": 1552,
      "par": 1553,
      "Ġtreatment": 1554,
      "ator": 1555,
      "ĠCl": 1556,
      "|Ċ": 1557,
      "Ġsince": 1558,
      "Ġprom": 1559,
      "ina": 1560,
      "Ġsignific": 1561,
      "sc": 1562,
      "We": 1563,
      "Ġtimes": 1564,
      "Ġothers": 1565,
      "Ġavailable": 1566,
      "ĠTo": 1567,
      "osp": 1568,
      ".S": 1569,
      "ends": 1570,
      "Ġage": 1571,
      "Ġmar": 1572,
      "Ġlim": 1573,
      "Ġcountry": 1574,
      "ĠPl": 1575,
      "ĠCol": 1576,
      "cing": 1577,
      "Ġel": 1578,
      "Ġcreat": 1579,
      "Ġproblem": 1580,
      "If": 1581,
      "Ġnon": 1582,
      "Ġorig": 1583,
      "rist": 1584,
      "Ġhead": 1585,
      "Ġbased": 1586,
      "Ġaccess": 1587,
      "Ġname": 1588,
      "Ġproblems": 1589,
      "-p": 1590,
      "ĠCan": 1591,
      "idence": 1592,
      "Ġrun": 1593,
      "Ġlist": 1594,
      "ling": 1595,
      "-c": 1596,
      "Ġimpact": 1597,
      "urop": 1598,
      "Ġtype": 1599,
      "Ġmonth": 1600,
      "ilar": 1601,
      "Ġcond": 1602,
      "Ġfac": 1603,
      "Ġfollowing": 1604,
      ",\"": 1605,
      "though": 1606,
      "Ġfour": 1607,
      "Ġpress": 1608,
      "Ġmen": 1609,
      "Ġnatural": 1610,
      "Ġfree": 1611,
      "Ġlevels": 1612,
      "Ġhard": 1613,
      "ames": 1614,
      "ole": 1615,
      "imes": 1616,
      "Ġstruct": 1617,
      "Ġamong": 1618,
      "ended": 1619,
      "Ġamount": 1620,
      "Ġconn": 1621,
      "Ġcome": 1622,
      "Ġlo": 1623,
      "ones": 1624,
      "ances": 1625,
      "Ġdel": 1626,
      "ane": 1627,
      "Ġflow": 1628,
      "Ġfre": 1629,
      "Ġbir": 1630,
      "Ġbook": 1631,
      "port": 1632,
      "work": 1633,
      "Ġyoung": 1634,
      "Ġfocus": 1635,
      "Ġput": 1636,
      "Ġcomput": 1637,
      "omp": 1638,
      "Ġbi": 1639,
      "Ġcells": 1640,
      "Ġcertain": 1641,
      "Ġpost": 1642,
      "ring": 1643,
      "Ġobject": 1644,
      "oint": 1645,
      "ĠStates": 1646,
      "Ġmaking": 1647,
      "ortun": 1648,
      "icult": 1649,
      "Ġlab": 1650,
      "Ġet": 1651,
      "ething": 1652,
      "sy": 1653,
      "ably": 1654,
      "Ġindust": 1655,
      "-d": 1656,
      "elf": 1657,
      "Ġlittle": 1658,
      "ret": 1659,
      "ploy": 1660,
      "ope": 1661,
      "Ġintern": 1662,
      "urther": 1663,
      "hy": 1664,
      "Ġtechnology": 1665,
      "Ġsuccess": 1666,
      "Ġlocal": 1667,
      "Ġgr": 1668,
      "Ġheart": 1669,
      "Ġcase": 1670,
      "Ġcho": 1671,
      "ĠSe": 1672,
      "ĠWhat": 1673,
      "Ġview": 1674,
      "of": 1675,
      "Ġsw": 1676,
      "oks": 1677,
      "Ġdue": 1678,
      "ĠCent": 1679,
      "Ġmult": 1680,
      "Ġrece": 1681,
      "ised": 1682,
      "Ġprovid": 1683,
      "urope": 1684,
      "une": 1685,
      "Ġvir": 1686,
      "ression": 1687,
      "Ġshort": 1688,
      "uture": 1689,
      "Ġbehav": 1690,
      "ĠQ": 1691,
      "ĠAt": 1692,
      "Ġlikely": 1693,
      "Ġlet": 1694,
      "ptoms": 1695,
      "Ġeducation": 1696,
      "ox": 1697,
      "Ġcreate": 1698,
      "ication": 1699,
      "atory": 1700,
      "ggest": 1701,
      "Ġsystems": 1702,
      "Ġteac": 1703,
      "Ġfar": 1704,
      "Ġsignificant": 1705,
      "ĠNational": 1706,
      "Ġbro": 1707,
      "Ġusually": 1708,
      "ately": 1709,
      "How": 1710,
      "ĠAf": 1711,
      "Ġassoci": 1712,
      "Ġlanguage": 1713,
      "Ġturn": 1714,
      "ĠTe": 1715,
      "Ġsomething": 1716,
      "Ġvol": 1717,
      "Ġcancer": 1718,
      "Ġresearc": 1719,
      "br": 1720,
      "ĠComm": 1721,
      "Ġconsum": 1722,
      "Ġuntil": 1723,
      "40": 1724,
      "Ġhy": 1725,
      "Ġbrain": 1726,
      "Ġtemper": 1727,
      "Ġinvest": 1728,
      "âĢĵ": 1729,
      "Ġfunction": 1730,
      "Ġtoday": 1731,
      "Ġalong": 1732,
      "As": 1733,
      "ĠZ": 1734,
      "ĠEn": 1735,
      "over": 1736,
      "Ġcir": 1737,
      "Ġdeterm": 1738,
      "Ġdays": 1739,
      "ledge": 1740,
      "Ġincrease": 1741,
      "Ġmillion": 1742,
      "Ġsuggest": 1743,
      "Ġspace": 1744,
      "Ġrad": 1745,
      "ured": 1746,
      "Ġparent": 1747,
      "Ġey": 1748,
      "olution": 1749,
      "Ġfil": 1750,
      "Ġcomb": 1751,
      "Ġcourse": 1752,
      "ape": 1753,
      "Ġwhy": 1754,
      "agement": 1755,
      "There": 1756,
      "Ġlater": 1757,
      "Ġneeds": 1758,
      "Ġpast": 1759,
      "Ġworks": 1760,
      "Ġprofess": 1761,
      "25": 1762,
      "ĠEurope": 1763,
      "ending": 1764,
      "âĢĻre": 1765,
      "face": 1766,
      "por": 1767,
      "ĠBe": 1768,
      "aps": 1769,
      "Ġgiven": 1770,
      "Ġalways": 1771,
      "__": 1772,
      "Ġcommunity": 1773,
      "ecially": 1774,
      "Ġdifficult": 1775,
      "Ġeffective": 1776,
      "resent": 1777,
      "Ġenc": 1778,
      "ĠGod": 1779,
      "Ġrele": 1780,
      "stit": 1781,
      "Ġdra": 1782,
      "Ġspecific": 1783,
      "ged": 1784,
      "ither": 1785,
      "Ġresults": 1786,
      "Ġdam": 1787,
      "Ġwords": 1788,
      "aster": 1789,
      "ours": 1790,
      "obal": 1791,
      "Ġplants": 1792,
      "aken": 1793,
      "Ġexperience": 1794,
      "ont": 1795,
      "Ġacross": 1796,
      "Ġill": 1797,
      "Ġconditions": 1798,
      "hem": 1799,
      "-m": 1800,
      "ators": 1801,
      "Ġgive": 1802,
      "ĠWor": 1803,
      "Ġdeath": 1804,
      "ĠUS": 1805,
      "asing": 1806,
      "icro": 1807,
      "Ġseem": 1808,
      "etic": 1809,
      "Ġappear": 1810,
      "not": 1811,
      "Ġtry": 1812,
      "vious": 1813,
      "Ġfuture": 1814,
      "rug": 1815,
      "Ġtool": 1816,
      "Ġteam": 1817,
      "Ġsing": 1818,
      "Ġ$": 1819,
      "especially": 1820,
      "Ġbegin": 1821,
      "Ġtoget": 1822,
      "Ġimprove": 1823,
      "Ġtogether": 1824,
      "Ġways": 1825,
      "Ġspecial": 1826,
      "Ġworking": 1827,
      "Ġnext": 1828,
      "Ġbusiness": 1829,
      "Ġvarious": 1830,
      "Ġrecord": 1831,
      "ĠOr": 1832,
      "Ġobs": 1833,
      "Ġsimilar": 1834,
      "Ġcr": 1835,
      "Ġcountries": 1836,
      "af": 1837,
      "Ġcentury": 1838,
      "Ġclear": 1839,
      "Ġchanges": 1840,
      "Ġpopulation": 1841,
      "aves": 1842,
      "Ġhigher": 1843,
      "Ġapplic": 1844,
      "ĠEar": 1845,
      "ique": 1846,
      "atch": 1847,
      "St": 1848,
      "ried": 1849,
      "ember": 1850,
      "ored": 1851,
      "Ġsymptoms": 1852,
      "Ġcharacter": 1853,
      "Ġcolle": 1854,
      "ĠAll": 1855,
      "Ġmov": 1856,
      "Ġ[": 1857,
      "Ġpolit": 1858,
      "Ġchem": 1859,
      "Ġdiscuss": 1860,
      "!Ċ": 1861,
      "Ġkey": 1862,
      "ĠSo": 1863,
      "Ġrequire": 1864,
      "Ġenough": 1865,
      "ĠAfric": 1866,
      "idd": 1867,
      "Ġtypes": 1868,
      "ned": 1869,
      "Ġer": 1870,
      "Ġcy": 1871,
      "Ġcrit": 1872,
      "Ġside": 1873,
      "ruction": 1874,
      "aining": 1875,
      "Ġstrong": 1876,
      "cul": 1877,
      "orts": 1878,
      "Ġline": 1879,
      "Ġask": 1880,
      "Ġauthor": 1881,
      "Ġleast": 1882,
      "Ġgre": 1883,
      "ĠBl": 1884,
      "Ġcomplete": 1885,
      "ww": 1886,
      "ribut": 1887,
      "ĠOn": 1888,
      "sw": 1889,
      "Ġexist": 1890,
      "Ġdescrib": 1891,
      "ilities": 1892,
      "Ġabove": 1893,
      "most": 1894,
      "Ġaway": 1895,
      "be": 1896,
      "aces": 1897,
      "omes": 1898,
      "ateg": 1899,
      "oney": 1900,
      "Ġespecially": 1901,
      "Ġkind": 1902,
      "iation": 1903,
      "Ġsens": 1904,
      "Ġmot": 1905,
      "ĠChrist": 1906,
      "sp": 1907,
      "Ġeffects": 1908,
      "Ġpatients": 1909,
      "Ġrespons": 1910,
      "ĠMed": 1911,
      "Ġterm": 1912,
      "Ġnecess": 1913,
      "Ġstep": 1914,
      "aching": 1915,
      "acc": 1916,
      "amm": 1917,
      "ode": 1918,
      "Ġprotect": 1919,
      "Ġbig": 1920,
      "Ġnet": 1921,
      "Ġpaper": 1922,
      "Ġfull": 1923,
      "An": 1924,
      "oot": 1925,
      "aring": 1926,
      "ler": 1927,
      "Ġopt": 1928,
      "Ġgoing": 1929,
      "Ġmakes": 1930,
      "Ġhowever": 1931,
      "ush": 1932,
      "mit": 1933,
      "ires": 1934,
      "iting": 1935,
      "Ġdig": 1936,
      "Ġnut": 1937,
      "ray": 1938,
      "-l": 1939,
      "For": 1940,
      "60": 1941,
      "ilt": 1942,
      "Ġscience": 1943,
      "ales": 1944,
      "Ġphysical": 1945,
      "-t": 1946,
      "ables": 1947,
      "Ġnorm": 1948,
      "thing": 1949,
      "Ġcases": 1950,
      "Ġsure": 1951,
      "selves": 1952,
      "ohn": 1953,
      "Ġleft": 1954,
      "ym": 1955,
      "Ġchall": 1956,
      "Ġprim": 1957,
      "Ġresearchers": 1958,
      "isc": 1959,
      "acy": 1960,
      "Ġnever": 1961,
      "let": 1962,
      "Ġlive": 1963,
      "ĠFr": 1964,
      "alf": 1965,
      "Ġlower": 1966,
      "ysis": 1967,
      "hern": 1968,
      "ument": 1969,
      "Ġwr": 1970,
      "pr": 1971,
      "ĠBrit": 1972,
      "Ġhaving": 1973,
      "duct": 1974,
      "Ġ'": 1975,
      "chie": 1976,
      "Ġskills": 1977,
      "Ġstudies": 1978,
      "Ġlot": 1979,
      "atures": 1980,
      "Ġestab": 1981,
      "Ġtru": 1982,
      "Ġrole": 1983,
      "21": 1984,
      "ĠSome": 1985,
      "Ġens": 1986,
      "bon": 1987,
      "Ġsum": 1988,
      "Ġrange": 1989,
      "Ġwhether": 1990,
      "Ġprop": 1991,
      "Ġknowledge": 1992,
      "Ġstory": 1993,
      "oring": 1994,
      "Ġconsider": 1995,
      "ready": 1996,
      "Ġbelow": 1997,
      "lement": 1998,
      "ipp": 1999,
      "side": 2000,
      "Ġsubject": 2001,
      "Ġinflu": 2002,
      "Ġmind": 2003,
      "Ġz": 2004,
      "Ġactivities": 2005,
      "Ġquality": 2006,
      "Ġpred": 2007,
      "Ġground": 2008,
      "min": 2009,
      "Ġloss": 2010,
      "ĠWith": 2011,
      "Ġgrowth": 2012,
      "ĠEnglish": 2013,
      "80": 2014,
      "Ġgeneral": 2015,
      "Ġproducts": 2016,
      "aut": 2017,
      "Ġaccount": 2018,
      "Ġbecame": 2019,
      "Ġwind": 2020,
      "Ġclimate": 2021,
      "Ġhouse": 2022,
      "ges": 2023,
      "verage": 2024,
      "leep": 2025,
      "Ġreally": 2026,
      "Ġrelations": 2027,
      "When": 2028,
      "Ġreduce": 2029,
      "Ġtext": 2030,
      "Ġproduction": 2031,
      "Ġresources": 2032,
      "Ġconcer": 2033,
      "Ġactivity": 2034,
      "lo": 2035,
      "app": 2036,
      "Ġcity": 2037,
      "omet": 2038,
      "Ġself": 2039,
      "ung": 2040,
      "ery": 2041,
      "Ġfurther": 2042,
      "ott": 2043,
      "ream": 2044,
      "Ġ.": 2045,
      "istic": 2046,
      "Ġdeveloped": 2047,
      "oman": 2048,
      "ites": 2049,
      "Ġfall": 2050,
      "Ġword": 2051,
      "apt": 2052,
      "Ġalready": 2053,
      "Ġreason": 2054,
      "Ġpotential": 2055,
      "ĠWar": 2056,
      "oura": 2057,
      "ae": 2058,
      "Ġfund": 2059,
      "Ġquestion": 2060,
      "Ġmedical": 2061,
      "ĠWorld": 2062,
      "ĠHealth": 2063,
      "Ġphot": 2064,
      "ĠThat": 2065,
      "Ġeff": 2066,
      "Ġsoil": 2067,
      "overed": 2068,
      "Ġvalue": 2069,
      "Ġaccording": 2070,
      "ency": 2071,
      "Ġoil": 2072,
      "Ġflu": 2073,
      "Ġdone": 2074,
      "Ġclose": 2075,
      "Ġdrug": 2076,
      "amin": 2077,
      "Ġskin": 2078,
      "Ġpolic": 2079,
      "ird": 2080,
      "Ġachie": 2081,
      "Ġseen": 2082,
      "Ġfield": 2083,
      "ley": 2084,
      "Ġbuilding": 2085,
      "ĠOne": 2086,
      "ands": 2087,
      "Ġsun": 2088,
      "Ġur": 2089,
      "Ġquestions": 2090,
      "osis": 2091,
      "Ġtoward": 2092,
      "ĠDr": 2093,
      "iple": 2094,
      "Ġrepresent": 2095,
      "Ġred": 2096,
      "Ġsource": 2097,
      "Ġpressure": 2098,
      "Ġevent": 2099,
      "Ġhealthy": 2100,
      "Ġgroups": 2101,
      "Ġsurface": 2102,
      "edi": 2103,
      "Ġdeg": 2104,
      "esc": 2105,
      "for": 2106,
      "ann": 2107,
      "ification": 2108,
      "rams": 2109,
      "ĠGerm": 2110,
      "Ġissues": 2111,
      "Ġrecogn": 2112,
      "fact": 2113,
      "Ġmodel": 2114,
      "ibility": 2115,
      "Ġsite": 2116,
      "Ġmass": 2117,
      "Ġrecomm": 2118,
      "by": 2119,
      ".\"Ċ": 2120,
      "Ġcirc": 2121,
      "Ġemploy": 2122,
      "Ġcut": 2123,
      "Ġarticle": 2124,
      "Ġsitu": 2125,
      "NA": 2126,
      "Ġfive": 2127,
      "ips": 2128,
      "Ġintrodu": 2129,
      "sych": 2130,
      "aim": 2131,
      "Ġparticip": 2132,
      "Ġindic": 2133,
      "nal": 2134,
      "Ġdoct": 2135,
      "unt": 2136,
      "Ġwhite": 2137,
      "ued": 2138,
      "Ġrate": 2139,
      "Ġtradition": 2140,
      "Ġbat": 2141,
      "Ġweek": 2142,
      "rel": 2143,
      "augh": 2144,
      "Ġsingle": 2145,
      "Ġcreated": 2146,
      "Ġsize": 2147,
      "ask": 2148,
      "Ġsimple": 2149,
      "earch": 2150,
      "Ġanimals": 2151,
      "Ġeither": 2152,
      "Ġconcept": 2153,
      "ety": 2154,
      "put": 2155,
      "Ġsound": 2156,
      "Ġwide": 2157,
      "Ġonce": 2158,
      "Ġneg": 2159,
      "Ġaddress": 2160,
      "Ġcollect": 2161,
      "idered": 2162,
      "ĠGo": 2163,
      "Ġstat": 2164,
      "ivity": 2165,
      "Ġstress": 2166,
      "Ġrather": 2167,
      "Ġdetail": 2168,
      "Ġtell": 2169,
      "urity": 2170,
      "Ġabs": 2171,
      "ĠJohn": 2172,
      "Ġadult": 2173,
      "Ġglobal": 2174,
      "Ġweight": 2175,
      "ĠLe": 2176,
      "erence": 2177,
      "Ġann": 2178,
      "Ġprob": 2179,
      "ĠCar": 2180,
      "Ġmaterials": 2181,
      "Ġactually": 2182,
      "Ġdiet": 2183,
      "ival": 2184,
      "Ġunderstanding": 2185,
      "Ġinit": 2186,
      "Ġengine": 2187,
      "ĠCal": 2188,
      "Ġopportun": 2189,
      "ĠAmerica": 2190,
      "Ġquick": 2191,
      "Ġstudent": 2192,
      "str": 2193,
      "Ġwriting": 2194,
      "ĠSouth": 2195,
      ",Ċ": 2196,
      "Ġfat": 2197,
      "Ġoffic": 2198,
      "ĠShe": 2199,
      "Ġliving": 2200,
      "Ġfri": 2201,
      "90": 2202,
      "ening": 2203,
      "rect": 2204,
      "Ġcomes": 2205,
      "Ġmarket": 2206,
      "ĠIntern": 2207,
      "roll": 2208,
      "Ġconsidered": 2209,
      "Ġsal": 2210,
      "reme": 2211,
      "ĠNorth": 2212,
      "fficient": 2213,
      "Ġfish": 2214,
      "Ġlay": 2215,
      "Ġnational": 2216,
      "Ġfrequ": 2217,
      "Ġability": 2218,
      "Ġblack": 2219,
      "Ġtaken": 2220,
      "Ġmeet": 2221,
      "Ġdog": 2222,
      "24": 2223,
      "Ġtot": 2224,
      "rict": 2225,
      "oon": 2226,
      "ĠIm": 2227,
      "Ġcondition": 2228,
      "Ġansw": 2229,
      "Ġpractice": 2230,
      "Ġassociated": 2231,
      "Ġneeded": 2232,
      "Ġpublished": 2233,
      "iol": 2234,
      "To": 2235,
      "ĠBy": 2236,
      "Ġexerc": 2237,
      "Ġincreased": 2238,
      "Ġprovides": 2239,
      "ump": 2240,
      "Ġfail": 2241,
      "ule": 2242,
      "ĠEarth": 2243,
      "ison": 2244,
      "gest": 2245,
      "Ġwhole": 2246,
      "Ġobserv": 2247,
      "Ġhold": 2248,
      "ibr": 2249,
      "aging": 2250,
      "Ġpay": 2251,
      "Ġparts": 2252,
      "Ġexperien": 2253,
      "âĢ¦": 2254,
      "ĠStud": 2255,
      "val": 2256,
      "ĠGe": 2257,
      "Ġhistor": 2258,
      "Ġrelated": 2259,
      "Ġgreen": 2260,
      "ications": 2261,
      "ensive": 2262,
      "Ġver": 2263,
      "Ġevidence": 2264,
      "Ġstates": 2265,
      "fer": 2266,
      "Ġfamil": 2267,
      "ivil": 2268,
      "ER": 2269,
      "urch": 2270,
      "Ġrepl": 2271,
      "ĠSy": 2272,
      "70": 2273,
      "Ġfeed": 2274,
      "Ġavoid": 2275,
      "22": 2276,
      "Ġparents": 2277,
      "light": 2278,
      "Ġgas": 2279,
      "ĠGen": 2280,
      "Ġrequired": 2281,
      "Ġdom": 2282,
      "Ġdoc": 2283,
      "SA": 2284,
      "Ġidea": 2285,
      "Ġfactors": 2286,
      "You": 2287,
      "Ġthemselves": 2288,
      "Wh": 2289,
      "Ġ=": 2290,
      "Ġsent": 2291,
      "ĠTr": 2292,
      "lying": 2293,
      "ĠAss": 2294,
      "Ġcomplex": 2295,
      "Al": 2296,
      "Ġnature": 2297,
      "Ġmaint": 2298,
      "Ġmicro": 2299,
      "Ġproduce": 2300,
      "illed": 2301,
      "Ġentire": 2302,
      "Ġcomputer": 2303,
      "Ġmembers": 2304,
      "Ch": 2305,
      "Ġcoll": 2306,
      "ging": 2307,
      "mber": 2308,
      "Ġcat": 2309,
      "Ġrelationship": 2310,
      "ĠAust": 2311,
      "Ġmodern": 2312,
      "erve": 2313,
      "iam": 2314,
      "Ġpurp": 2315,
      "aced": 2316,
      "Ġchemical": 2317,
      "Ġalmost": 2318,
      "Ġprote": 2319,
      "epend": 2320,
      "Ġcame": 2321,
      "Ġsoft": 2322,
      "Ġspe": 2323,
      "Ġport": 2324,
      "Ġmonths": 2325,
      "Ġreading": 2326,
      "Ġeconomic": 2327,
      "Ġthought": 2328,
      "ĠMar": 2329,
      "Ġmanagement": 2330,
      "Ġservices": 2331,
      "reg": 2332,
      "ublic": 2333,
      "ĠAb": 2334,
      "Ġjob": 2335,
      "Ġcannot": 2336,
      "Ġlink": 2337,
      "Ġreturn": 2338,
      "utions": 2339,
      "hing": 2340,
      "ĠAm": 2341,
      "Ġdest": 2342,
      "ores": 2343,
      "Ġclean": 2344,
      "enn": 2345,
      "artment": 2346,
      "Ġmoney": 2347,
      "oes": 2348,
      "vere": 2349,
      "acks": 2350,
      "Ġsuff": 2351,
      "aged": 2352,
      "Ġreact": 2353,
      "Ġsleep": 2354,
      "Ġarch": 2355,
      "Ġhalf": 2356,
      "Ġonline": 2357,
      "emic": 2358,
      "ney": 2359,
      "Ġmeasure": 2360,
      "Ġla": 2361,
      "ront": 2362,
      "Ġthroughout": 2363,
      "Ġvers": 2364,
      "urs": 2365,
      "Ġassess": 2366,
      "ply": 2367,
      "sequ": 2368,
      "Ġliter": 2369,
      "Ġapproach": 2370,
      "Ġpersonal": 2371,
      "yn": 2372,
      "//": 2373,
      "uel": 2374,
      "Ġpopular": 2375,
      "abor": 2376,
      "Ġrelig": 2377,
      "inter": 2378,
      "itud": 2379,
      "Ġstop": 2380,
      "Ġcauses": 2381,
      "ections": 2382,
      "cient": 2383,
      "ĠPr": 2384,
      "ccording": 2385,
      "ĠMay": 2386,
      "ened": 2387,
      "oses": 2388,
      "Ġhab": 2389,
      "Ġfarm": 2390,
      "utes": 2391,
      "Ġemer": 2392,
      "Ġheat": 2393,
      "chan": 2394,
      "Ġever": 2395,
      "Ġpolitical": 2396,
      "rown": 2397,
      "Ġtaking": 2398,
      "ĠMan": 2399,
      "Ġge": 2400,
      "oph": 2401,
      ".com": 2402,
      "Ġpath": 2403,
      "Ġanalysis": 2404,
      "Ġbar": 2405,
      "Ġrecent": 2406,
      "Ġtemperature": 2407,
      "Ġshows": 2408,
      "Ġsuper": 2409,
      "Ġcolor": 2410,
      "ĠDep": 2411,
      "Ġdiagn": 2412,
      "izing": 2413,
      "yle": 2414,
      "hib": 2415,
      "Ġregion": 2416,
      "ences": 2417,
      "Ġnecessary": 2418,
      "Ġtalk": 2419,
      "ze": 2420,
      "eds": 2421,
      "Ġincreasing": 2422,
      "erous": 2423,
      "Ġindividuals": 2424,
      "bo": 2425,
      "Ġindustry": 2426,
      "Ġconduct": 2427,
      "Ġbegan": 2428,
      "Ġtherap": 2429,
      "Ġbenefits": 2430,
      "Ġeasy": 2431,
      "astic": 2432,
      "Ġitself": 2433,
      "Ġinj": 2434,
      "Ġsam": 2435,
      "ma": 2436,
      "Ġarg": 2437,
      "Ġcompany": 2438,
      "rad": 2439,
      "ournal": 2440,
      "Ġpattern": 2441,
      "oll": 2442,
      "iddle": 2443,
      "Ġcaused": 2444,
      "Ġcontent": 2445,
      "Ġsafe": 2446,
      "Ġenvironmental": 2447,
      "Ġscientists": 2448,
      "Ġtar": 2449,
      "Ġlives": 2450,
      "Ġhours": 2451,
      "ĠAct": 2452,
      "Ġupon": 2453,
      "Ġbreak": 2454,
      "Ġrights": 2455,
      "Ġspread": 2456,
      "-based": 2457,
      "Ġhelps": 2458,
      "Ġcheck": 2459,
      "Ġcop": 2460,
      "iction": 2461,
      "Ġinteract": 2462,
      "Ġcontain": 2463,
      "Ġmach": 2464,
      "Ġvide": 2465,
      "Ġdisord": 2466,
      "Ġtraining": 2467,
      "uck": 2468,
      "Ġbuilt": 2469,
      "Ġschools": 2470,
      "Ġfru": 2471,
      "Ġlonger": 2472,
      "icles": 2473,
      "anced": 2474,
      "olic": 2475,
      "ĠCont": 2476,
      "://": 2477,
      "Ġpoll": 2478,
      "ai": 2479,
      "pid": 2480,
      "Ġstructure": 2481,
      "ising": 2482,
      "Ġtook": 2483,
      "Ġcontact": 2484,
      "Ġut": 2485,
      "Ġbur": 2486,
      "eter": 2487,
      "ober": 2488,
      "Ġtravel": 2489,
      "Ġwild": 2490,
      "Ġeat": 2491,
      "Ġyet": 2492,
      "Ġfire": 2493,
      "Ġarr": 2494,
      "Ġbacter": 2495,
      "Ġdesigned": 2496,
      "lor": 2497,
      "Ġpriv": 2498,
      "onse": 2499,
      "ches": 2500,
      "aily": 2501,
      "ĠComp": 2502,
      "go": 2503,
      "nces": 2504,
      "ĠWhile": 2505,
      "abet": 2506,
      "Ġce": 2507,
      "Ġbehavior": 2508,
      "Ġfoods": 2509,
      "usion": 2510,
      "org": 2511,
      "-w": 2512,
      "ese": 2513,
      "ming": 2514,
      "Ġcarbon": 2515,
      "reng": 2516,
      "Ġsix": 2517,
      "Ġincludes": 2518,
      "Ġsurv": 2519,
      "hold": 2520,
      "ĠSchool": 2521,
      "Ġmor": 2522,
      "ĠRep": 2523,
      "Ġregular": 2524,
      "Ġsociety": 2525,
      "Ġaction": 2526,
      "Ġsepar": 2527,
      "ĠGu": 2528,
      "Ġdeb": 2529,
      "Ġmeaning": 2530,
      "ĠSoc": 2531,
      "Ġvariety": 2532,
      "ume": 2533,
      "ufact": 2534,
      "itary": 2535,
      "Ġtotal": 2536,
      "Ġlif": 2537,
      "But": 2538,
      "ĠCanad": 2539,
      "fully": 2540,
      "Ġetc": 2541,
      "Ġsense": 2542,
      "Ġste": 2543,
      "Ġsomet": 2544,
      "lt": 2545,
      "Ġprevious": 2546,
      "estern": 2547,
      "ronic": 2548,
      "ĠAfter": 2549,
      "gar": 2550,
      "Ġpositive": 2551,
      "eb": 2552,
      "itation": 2553,
      "ĠState": 2554,
      "ules": 2555,
      "ĠX": 2556,
      "Ġaverage": 2557,
      "Ġthing": 2558,
      "Ġmatter": 2559,
      "aving": 2560,
      "ricult": 2561,
      "Ġdamage": 2562,
      "Ġservice": 2563,
      "Ġsat": 2564,
      "23": 2565,
      "Ġterms": 2566,
      "Ġkids": 2567,
      "yl": 2568,
      "Ġprinc": 2569,
      "Ġuses": 2570,
      "Ġbring": 2571,
      "Ġfig": 2572,
      "hood": 2573,
      "het": 2574,
      "ows": 2575,
      "ID": 2576,
      "Ġast": 2577,
      "Ġexperim": 2578,
      "Ġslow": 2579,
      "mb": 2580,
      "Ġsex": 2581,
      "ils": 2582,
      "ES": 2583,
      "apan": 2584,
      "ĠHis": 2585,
      "Ġvisit": 2586,
      "ively": 2587,
      "Ġconc": 2588,
      "Ġdeep": 2589,
      "Ġelectric": 2590,
      "vey": 2591,
      "istics": 2592,
      "ĠBritish": 2593,
      "Ġregard": 2594,
      "ĠCo": 2595,
      "empt": 2596,
      "ulations": 2597,
      "Ġmethods": 2598,
      "Ġidentify": 2599,
      "ĠInstit": 2600,
      "inary": 2601,
      "ades": 2602,
      "lands": 2603,
      "ĠResearch": 2604,
      "Ġheav": 2605,
      "lex": 2606,
      "ropri": 2607,
      "Ġencoura": 2608,
      "Ġcompan": 2609,
      "ript": 2610,
      "imately": 2611,
      "Ġsometimes": 2612,
      "Ġmusic": 2613,
      "Ġdoing": 2614,
      "ext": 2615,
      "Ġface": 2616,
      "ĠPe": 2617,
      "room": 2618,
      "Ġsimply": 2619,
      "ched": 2620,
      "Ġprograms": 2621,
      "Ġshown": 2622,
      "ĠHist": 2623,
      "Ġstandard": 2624,
      "Ġdeveloping": 2625,
      "Ġnormal": 2626,
      "asc": 2627,
      "Ġsources": 2628,
      "Ġvirus": 2629,
      "Ġclaim": 2630,
      "Ġfem": 2631,
      "ederal": 2632,
      "Ġissue": 2633,
      "Ġwebs": 2634,
      "amed": 2635,
      "Ġprovided": 2636,
      "Ġposition": 2637,
      "Ġchalleng": 2638,
      "Ġsubst": 2639,
      "Ġled": 2640,
      "Ġbab": 2641,
      "Ġthreat": 2642,
      "Ġvari": 2643,
      "Ġpict": 2644,
      "Ġgrowing": 2645,
      "icine": 2646,
      "Ġprec": 2647,
      "Ġteachers": 2648,
      "Ġessential": 2649,
      "Ġimage": 2650,
      "ĠYork": 2651,
      "ns": 2652,
      "Ġensure": 2653,
      "istance": 2654,
      "Ġearth": 2655,
      "Ġemot": 2656,
      "ene": 2657,
      "Ġwritten": 2658,
      "ĠCO": 2659,
      "Ġinteg": 2660,
      "Ġbasic": 2661,
      "oor": 2662,
      "Ġbal": 2663,
      "Ġpage": 2664,
      "Ġstreng": 2665,
      "Ġdoesn": 2666,
      "ĠIndia": 2667,
      "Ġexc": 2668,
      "Ġlove": 2669,
      "rought": 2670,
      "Ġtarget": 2671,
      "minist": 2672,
      "Ġbelieve": 2673,
      "Ġtrue": 2674,
      "Ġrev": 2675,
      "elling": 2676,
      "aff": 2677,
      "Ġsust": 2678,
      "Ġcompl": 2679,
      "verse": 2680,
      "Ġforest": 2681,
      "ength": 2682,
      "Ġevents": 2683,
      "Ġinvolved": 2684,
      "Ġec": 2685,
      "aches": 2686,
      "rast": 2687,
      "Ġculture": 2688,
      "duc": 2689,
      "irm": 2690,
      "Ġcompon": 2691,
      "Ġgetting": 2692,
      "Ġoutside": 2693,
      "Ġnight": 2694,
      "Ġtend": 2695,
      "Ġpsych": 2696,
      "Ġgreater": 2697,
      "Ġorigin": 2698,
      "AT": 2699,
      "rior": 2700,
      "Ġshare": 2701,
      "Ġremov": 2702,
      "Ġextreme": 2703,
      "uge": 2704,
      "aling": 2705,
      "my": 2706,
      "Ġvacc": 2707,
      "Ġmechan": 2708,
      "Ġfeet": 2709,
      "ĠJew": 2710,
      "Ġreview": 2711,
      "atives": 2712,
      "Ġserious": 2713,
      "aries": 2714,
      "Ġmanufact": 2715,
      "Ġmovement": 2716,
      "Ġrelative": 2717,
      "Ġnumbers": 2718,
      "Ġattention": 2719,
      "Ġresponse": 2720,
      "AR": 2721,
      "oles": 2722,
      "Ġharm": 2723,
      "know": 2724,
      "Ġsomeone": 2725,
      "lease": 2726,
      "Ġviol": 2727,
      "issions": 2728,
      "-in": 2729,
      "Ġsafety": 2730,
      "Ġveget": 2731,
      "ĠAustral": 2732,
      "ĠEm": 2733,
      "Ġparticularly": 2734,
      "Ġwood": 2735,
      "ises": 2736,
      "Ġforms": 2737,
      "Ġsqu": 2738,
      "ĠScience": 2739,
      "mon": 2740,
      "arily": 2741,
      "Ġdraw": 2742,
      "Ġaccept": 2743,
      "Ġcust": 2744,
      "ctions": 2745,
      "Ġox": 2746,
      "Ġpoor": 2747,
      "Ġ--": 2748,
      "ners": 2749,
      "Ġaware": 2750,
      "Ġanimal": 2751,
      "ials": 2752,
      "Ġideas": 2753,
      "ems": 2754,
      "ervation": 2755,
      "Ġprint": 2756,
      "Ġnetwork": 2757,
      "ĠJapan": 2758,
      "Ġproduced": 2759,
      "Ġtakes": 2760,
      "Ġcompet": 2761,
      "Ġrefer": 2762,
      "Ġdiseases": 2763,
      "new": 2764,
      "Ġlack": 2765,
      "alu": 2766,
      "Ġwarm": 2767,
      "Ġmagn": 2768,
      "ister": 2769,
      "Ġdispl": 2770,
      "Ġpatient": 2771,
      "Ġdefin": 2772,
      "Ġlooking": 2773,
      "Ġeasily": 2774,
      "ban": 2775,
      "lies": 2776,
      "ĠSu": 2777,
      "Ġlate": 2778,
      "umb": 2779,
      "Ġago": 2780,
      "Ġdemon": 2781,
      "...": 2782,
      "09": 2783,
      "Ġcamp": 2784,
      "Ġcontinue": 2785,
      "Ġhtt": 2786,
      "Ġprep": 2787,
      "Ġdaily": 2788,
      "wh": 2789,
      "eration": 2790,
      "Ġbra": 2791,
      "Ġcorrect": 2792,
      "Ġmedia": 2793,
      "Ġgenerally": 2794,
      "Ġreported": 2795,
      "Ġimplement": 2796,
      "ĠYour": 2797,
      "osure": 2798,
      "osing": 2799,
      "08": 2800,
      "Ġtools": 2801,
      "ground": 2802,
      "Ġseries": 2803,
      "rim": 2804,
      "ĠPar": 2805,
      "Ġtree": 2806,
      "Ġallows": 2807,
      "Ġspeed": 2808,
      "ĠMany": 2809,
      "Ġir": 2810,
      "Ġhyd": 2811,
      "Ġselect": 2812,
      "Ġmess": 2813,
      "Ġlat": 2814,
      "rench": 2815,
      "Ġfinanc": 2816,
      "itor": 2817,
      "rated": 2818,
      "Ġhumans": 2819,
      "Ġinside": 2820,
      "Ġstarted": 2821,
      "Ġlog": 2822,
      "Ġmental": 2823,
      "ads": 2824,
      "ĠKing": 2825,
      "Ġstra": 2826,
      "ĠDo": 2827,
      ".g": 2828,
      "ography": 2829,
      "Ġgard": 2830,
      "ĠNo": 2831,
      "Ġessay": 2832,
      "Ġdang": 2833,
      "raft": 2834,
      "Ġbooks": 2835,
      "ĠCount": 2836,
      "sh": 2837,
      "ĠPres": 2838,
      "01": 2839,
      "Ġprobably": 2840,
      "set": 2841,
      "Ġtur": 2842,
      "Ġsea": 2843,
      "Ġoriginal": 2844,
      "Ġunique": 2845,
      "Ġadded": 2846,
      "erg": 2847,
      "Ġtrees": 2848,
      "Ġsolar": 2849,
      "ights": 2850,
      "ecause": 2851,
      "Ġvit": 2852,
      "Ġap": 2853,
      "Ġcover": 2854,
      "Ġdetermine": 2855,
      "ĠII": 2856,
      "ĠChina": 2857,
      "abetes": 2858,
      "Ġquickly": 2859,
      "Ġwall": 2860,
      "ĠCenter": 2861,
      "Ġincluded": 2862,
      "Ġtiss": 2863,
      "Ġemb": 2864,
      "ucle": 2865,
      "osition": 2866,
      "Ã©": 2867,
      "Ġeye": 2868,
      "fect": 2869,
      "hest": 2870,
      "iency": 2871,
      "ls": 2872,
      "Ġcommunities": 2873,
      "ached": 2874,
      "Ġtax": 2875,
      "Ġ/": 2876,
      "overy": 2877,
      "Ġconsist": 2878,
      "Ġcolon": 2879,
      "isions": 2880,
      "dom": 2881,
      "ellow": 2882,
      "ties": 2883,
      "Ġprimary": 2884,
      "Ġdry": 2885,
      "Ġ|": 2886,
      "Ġtraditional": 2887,
      "Ġscientific": 2888,
      "âĢĻve": 2889,
      "ĠPre": 2890,
      "IN": 2891,
      "Ġoffer": 2892,
      "Ġachieve": 2893,
      "Ġdifference": 2894,
      "Ġcompanies": 2895,
      "where": 2896,
      "ana": 2897,
      "Ġperformance": 2898,
      "ĠApp": 2899,
      "imum": 2900,
      "Ġmother": 2901,
      "Ġquite": 2902,
      "Ġrespect": 2903,
      "Ġdoctor": 2904,
      "âĢĻll": 2905,
      "asons": 2906,
      "Ġanswer": 2907,
      "Ġwrite": 2908,
      "Ġinstead": 2909,
      "Ġinfection": 2910,
      "Ġattempt": 2911,
      "inks": 2912,
      "iot": 2913,
      "--": 2914,
      "ancy": 2915,
      "ĠPer": 2916,
      "Ġindepend": 2917,
      "Ġattack": 2918,
      "nov": 2919,
      "Ġcoun": 2920,
      "Ġmultiple": 2921,
      "pro": 2922,
      "ender": 2923,
      "Ġestim": 2924,
      "Ġaff": 2925,
      "26": 2926,
      "Ġnation": 2927,
      "ino": 2928,
      "cies": 2929,
      "ĠSec": 2930,
      "Ġinternational": 2931,
      "âĢ¢": 2932,
      "ounds": 2933,
      "ĠÂ": 2934,
      "Ġlarger": 2935,
      "Ġsil": 2936,
      "cean": 2937,
      "ops": 2938,
      "ĠMost": 2939,
      "idge": 2940,
      "ief": 2941,
      "Ġdrink": 2942,
      "Ġexercise": 2943,
      "Ġthous": 2944,
      "Ġforce": 2945,
      "ided": 2946,
      "Ġrout": 2947,
      "Ġi": 2948,
      "ĠMore": 2949,
      "Ġpoints": 2950,
      "iforn": 2951,
      "Ġprogress": 2952,
      "Ġsevere": 2953,
      "Ġcritical": 2954,
      "On": 2955,
      "One": 2956,
      "07": 2957,
      "28": 2958,
      "Ġinvestig": 2959,
      "Ġbit": 2960,
      "Ġdou": 2961,
      "Ġconcent": 2962,
      "right": 2963,
      "IS": 2964,
      "ension": 2965,
      "ying": 2966,
      "rs": 2967,
      "Ġwalk": 2968,
      "ĠWill": 2969,
      "ĠMe": 2970,
      "Ġcompared": 2971,
      "ĠInstitute": 2972,
      "ĠMin": 2973,
      "Ġappropri": 2974,
      "joy": 2975,
      "Ġdecre": 2976,
      "Ġbirth": 2977,
      "rate": 2978,
      "useum": 2979,
      "-h": 2980,
      "Ġdocument": 2981,
      "Ġvideo": 2982,
      "Ġreflect": 2983,
      "Ġanaly": 2984,
      "vention": 2985,
      "Ġful": 2986,
      "ĠQu": 2987,
      "Ġtheory": 2988,
      "27": 2989,
      "ĠNe": 2990,
      "ribution": 2991,
      "pe": 2992,
      "iques": 2993,
      "Ġstay": 2994,
      "Ġbehind": 2995,
      "Ġcross": 2996,
      "ĠEduc": 2997,
      "Ġcit": 2998,
      "Ġevalu": 2999,
      "Ġhighly": 3000,
      "Ġbad": 3001,
      "Ġleaders": 3002,
      "Ġcapt": 3003,
      "Ġacid": 3004,
      "Ġtown": 3005,
      "Ġpolicy": 3006,
      "oming": 3007,
      "Ġreve": 3008,
      "Ġfoot": 3009,
      "icated": 3010,
      "cell": 3011,
      "Ġextra": 3012,
      "Ġactive": 3013,
      "ifornia": 3014,
      "Ġexpress": 3015,
      "Ġcommit": 3016,
      "ĠHar": 3017,
      "term": 3018,
      "Ġleading": 3019,
      "itis": 3020,
      "haps": 3021,
      "Ġnegative": 3022,
      "uries": 3023,
      "Ġfav": 3024,
      "Ġhar": 3025,
      "35": 3026,
      "05": 3027,
      "gn": 3028,
      "Ġaltern": 3029,
      "Ġsupply": 3030,
      "Ġaim": 3031,
      "like": 3032,
      "anks": 3033,
      "Ġdirectly": 3034,
      "Ġfamilies": 3035,
      "Ġteaching": 3036,
      "ĠEuropean": 3037,
      "gency": 3038,
      "Ġcard": 3039,
      "ĠInt": 3040,
      "ĠCons": 3041,
      "Ġspeak": 3042,
      "ĠEd": 3043,
      "So": 3044,
      "Ġadditional": 3045,
      "ĠAfrica": 3046,
      "Ġthird": 3047,
      "Ġtri": 3048,
      "Ġfa": 3049,
      "rition": 3050,
      "Ġsecurity": 3051,
      "Ġeth": 3052,
      "Ġimmedi": 3053,
      "45": 3054,
      "Ġwaste": 3055,
      "Ġuseful": 3056,
      "itude": 3057,
      "Ġbacteria": 3058,
      "hel": 3059,
      "ift": 3060,
      "Ġaccur": 3061,
      "Ġminutes": 3062,
      "Ġaud": 3063,
      "Ġtherefore": 3064,
      "rig": 3065,
      "Ġdevices": 3066,
      "Ġfront": 3067,
      "Ġhot": 3068,
      "Ġhabit": 3069,
      "Ġaspect": 3070,
      "lied": 3071,
      "Ġexpect": 3072,
      "Ġcivil": 3073,
      "ashing": 3074,
      "Ġcustom": 3075,
      "Ġsoftware": 3076,
      "undred": 3077,
      "rew": 3078,
      "Ġsoon": 3079,
      "ĠUs": 3080,
      "Ġadults": 3081,
      "erson": 3082,
      "Ġtransport": 3083,
      "Ġcontains": 3084,
      "Ġthinking": 3085,
      "Ġestablished": 3086,
      "Ġproced": 3087,
      "Ġteeth": 3088,
      "Ġsold": 3089,
      "Ġsustain": 3090,
      "ĠBo": 3091,
      "Ġhor": 3092,
      "Ġmill": 3093,
      "Ġinstit": 3094,
      "Ġpack": 3095,
      "Ġleaves": 3096,
      "bol": 3097,
      "Ġnews": 3098,
      "ĠChild": 3099,
      "Ġdemonstr": 3100,
      "Ġfeatures": 3101,
      "elt": 3102,
      "Ġsn": 3103,
      "ĠGl": 3104,
      "vant": 3105,
      "Ġbroad": 3106,
      "Ġcentral": 3107,
      "-y": 3108,
      "Ġsearch": 3109,
      "ĠDepartment": 3110,
      "Ġclin": 3111,
      "-g": 3112,
      "ror": 3113,
      "ĠOf": 3114,
      "Ġprotein": 3115,
      "Ġfast": 3116,
      "Ġones": 3117,
      "ĠCalifornia": 3118,
      "Ġthus": 3119,
      "ulate": 3120,
      "Ġtowards": 3121,
      "coh": 3122,
      "ologies": 3123,
      "oly": 3124,
      "uth": 3125,
      "Ġhands": 3126,
      "He": 3127,
      "Ġimages": 3128,
      "Ġpurpose": 3129,
      "Ġblock": 3130,
      "Ġdark": 3131,
      "Ġprior": 3132,
      "ĠPart": 3133,
      "Ġexact": 3134,
      "Ġlargest": 3135,
      "06": 3136,
      "Ġbeginning": 3137,
      "na": 3138,
      "ha": 3139,
      "Ġquant": 3140,
      "'re": 3141,
      "Ġfinancial": 3142,
      "Ġfram": 3143,
      "arr": 3144,
      "ĠAg": 3145,
      "aly": 3146,
      "ille": 3147,
      "Ġweeks": 3148,
      "rogen": 3149,
      "Ġenjoy": 3150,
      "ĠIndian": 3151,
      "Ġwebsite": 3152,
      "cial": 3153,
      "Ġancient": 3154,
      "Ġdiv": 3155,
      "ching": 3156,
      "Ġveh": 3157,
      "Ġcontribut": 3158,
      "Ġbase": 3159,
      "ĠAc": 3160,
      "Ġheld": 3161,
      "Ġgoal": 3162,
      "iers": 3163,
      "Ġeating": 3164,
      "Ġtypically": 3165,
      "ĠAfrican": 3166,
      "Ġelements": 3167,
      "Ġrequires": 3168,
      "rial": 3169,
      "ĠJan": 3170,
      "bor": 3171,
      "ius": 3172,
      "Ġbreat": 3173,
      "ipment": 3174,
      "yond": 3175,
      "isms": 3176,
      "uary": 3177,
      "Ġegg": 3178,
      "Ġalthough": 3179,
      "Ġhost": 3180,
      "ĠEl": 3181,
      "Ġnearly": 3182,
      "fort": 3183,
      "Ġstrateg": 3184,
      "Ġmount": 3185,
      "lier": 3186,
      "outhern": 3187,
      "Ġgame": 3188,
      "ĠOther": 3189,
      "ĠFrench": 3190,
      "cks": 3191,
      "Ġseason": 3192,
      "ĠNot": 3193,
      "hens": 3194,
      "Ġsummer": 3195,
      "ĠWest": 3196,
      "Ġcreating": 3197,
      "Ġsituation": 3198,
      "Ġtests": 3199,
      "den": 3200,
      "mar": 3201,
      "ĠDay": 3202,
      "iber": 3203,
      "cles": 3204,
      "Ġvalues": 3205,
      ";Ċ": 3206,
      "Ġlength": 3207,
      "Ġcool": 3208,
      "Ġrates": 3209,
      "Ġprojects": 3210,
      "Ġinstall": 3211,
      "irit": 3212,
      "Ġcosts": 3213,
      "Ġfight": 3214,
      "Ġapplication": 3215,
      "ON": 3216,
      "Ġlimited": 3217,
      "Ġsolution": 3218,
      "ĠJu": 3219,
      "formation": 3220,
      "Ġlabor": 3221,
      "Ġreach": 3222,
      "Ġprocesses": 3223,
      "cil": 3224,
      "-st": 3225,
      "Ġtechniques": 3226,
      "Ġmemory": 3227,
      "ields": 3228,
      "Ġcommunication": 3229,
      "Ġrare": 3230,
      "Ġsugar": 3231,
      "Ġmom": 3232,
      "idents": 3233,
      "AN": 3234,
      "ĠRiver": 3235,
      "Ġcold": 3236,
      "iter": 3237,
      "ceed": 3238,
      "Ġagricult": 3239,
      "ĠAug": 3240,
      "Ġang": 3241,
      "ĠHere": 3242,
      "Ġlost": 3243,
      "Ġmilitary": 3244,
      "Ġeyes": 3245,
      "Ġimpl": 3246,
      "oke": 3247,
      "Ġplaces": 3248,
      "entially": 3249,
      "29": 3250,
      "Ġcarry": 3251,
      "Ġlocated": 3252,
      "Ġborn": 3253,
      "Ġprotection": 3254,
      "pper": 3255,
      "Ġbehavi": 3256,
      "sect": 3257,
      "son": 3258,
      "come": 3259,
      "ĠKe": 3260,
      "ĠRec": 3261,
      "imin": 3262,
      "Ġimportance": 3263,
      "ĠSm": 3264,
      "These": 3265,
      "vest": 3266,
      "Ġ,": 3267,
      "Ġseems": 3268,
      "inct": 3269,
      "Ġapplications": 3270,
      "iece": 3271,
      "rote": 3272,
      "Ġult": 3273,
      "Ġfit": 3274,
      "Ġcrop": 3275,
      "equ": 3276,
      "Ġsurround": 3277,
      "ĠAmericans": 3278,
      "Ġtable": 3279,
      "Ġtesting": 3280,
      "Ġwa": 3281,
      "Ġdemand": 3282,
      "Ġdigital": 3283,
      "Ġhundred": 3284,
      "ription": 3285,
      "OR": 3286,
      "Ġcele": 3287,
      "Ġmole": 3288,
      "odies": 3289,
      "02": 3290,
      "Ġcred": 3291,
      "03": 3292,
      "resh": 3293,
      "orthern": 3294,
      "imal": 3295,
      "And": 3296,
      "Ġgot": 3297,
      "Ġwhose": 3298,
      "izations": 3299,
      "Ġsection": 3300,
      "IC": 3301,
      "Ġwent": 3302,
      "Ġx": 3303,
      "istry": 3304,
      "ĠAlthough": 3305,
      "-to": 3306,
      "ĠReg": 3307,
      "Ġteacher": 3308,
      "Ġelse": 3309,
      "Ġstri": 3310,
      "Ġstru": 3311,
      "Ġice": 3312,
      "Ġdevice": 3313,
      "Ġworkers": 3314,
      "Ġbecomes": 3315,
      "pril": 3316,
      "04": 3317,
      "Ġadapt": 3318,
      "____": 3319,
      "Ġdiabetes": 3320,
      "Ġcapac": 3321,
      "Ġfriends": 3322,
      "AS": 3323,
      "ĠArt": 3324,
      "ding": 3325,
      "Ġdecl": 3326,
      "ibrary": 3327,
      "Ġexamples": 3328,
      "Ġinfluence": 3329,
      "Ġyourself": 3330,
      "Ġobt": 3331,
      "cohol": 3332,
      "Ġaffected": 3333,
      "ĠLear": 3334,
      "Ġweb": 3335,
      "31": 3336,
      "At": 3337,
      "ĠHer": 3338,
      "Ġweather": 3339,
      "lection": 3340,
      "Ġrespond": 3341,
      "Ġbeaut": 3342,
      "Ġmix": 3343,
      "Ġgives": 3344,
      "Ġdecision": 3345,
      "ED": 3346,
      "Ġbul": 3347,
      "Ġsites": 3348,
      "IV": 3349,
      "Ġpan": 3350,
      "oud": 3351,
      "Ġnorth": 3352,
      "ipl": 3353,
      "Ġfuel": 3354,
      "izes": 3355,
      "Ġrapid": 3356,
      "ĠMon": 3357,
      ".org": 3358,
      "While": 3359,
      "ĠGerman": 3360,
      "Ġnucle": 3361,
      "estic": 3362,
      "Ġlines": 3363,
      "ĠJes": 3364,
      "Ġappropriate": 3365,
      "atur": 3366,
      "Ġrecently": 3367,
      "Ġcra": 3368,
      "ĠRuss": 3369,
      "By": 3370,
      "reek": 3371,
      "itect": 3372,
      "Ġefforts": 3373,
      "Ġbott": 3374,
      "omb": 3375,
      "ĠSw": 3376,
      "ĠMarch": 3377,
      "Ġremains": 3378,
      "Ġcenter": 3379,
      "Ġprivate": 3380,
      "Ġchoose": 3381,
      "Ġremain": 3382,
      "mosp": 3383,
      "Ġjo": 3384,
      "wise": 3385,
      "Ġcam": 3386,
      "ĠTra": 3387,
      "Ġolder": 3388,
      "ĠCanada": 3389,
      "ĠServ": 3390,
      "Ġequipment": 3391,
      "Ġdeal": 3392,
      "Ġisn": 3393,
      "Ġconnect": 3394,
      "load": 3395,
      "Ġadvant": 3396,
      "Ġcoast": 3397,
      "Ġconstruction": 3398,
      "Ġcode": 3399,
      "-term": 3400,
      "Ġmiles": 3401,
      "Ex": 3402,
      "Ġscreen": 3403,
      "ĠTw": 3404,
      "ĠFirst": 3405,
      "Ġprofessional": 3406,
      "Ġadop": 3407,
      "Ġautom": 3408,
      "Ġroom": 3409,
      "Ġcultural": 3410,
      "With": 3411,
      "Ġpregn": 3412,
      "Ġtherapy": 3413,
      "Ġrain": 3414,
      "Ġrock": 3415,
      "used": 3416,
      "ĠAnt": 3417,
      "Ġcurrently": 3418,
      "PA": 3419,
      "Ġgradu": 3420,
      "32": 3421,
      "Ġbrought": 3422,
      "iles": 3423,
      "Ġsouth": 3424,
      "uman": 3425,
      "head": 3426,
      "ype": 3427,
      "Ġadj": 3428,
      "Ġcapital": 3429,
      "Ġinterp": 3430,
      "Ġtold": 3431,
      "Ġobjects": 3432,
      "Ġdisp": 3433,
      "Ġbenefit": 3434,
      "Ġshape": 3435,
      "ĠChar": 3436,
      "Ġresponsible": 3437,
      "king": 3438,
      "Ġreasons": 3439,
      "Ġcalcul": 3440,
      "Ġplanet": 3441,
      "Ġhope": 3442,
      "Ġmiddle": 3443,
      "Ġreceived": 3444,
      "ĠInternational": 3445,
      "ran": 3446,
      "Ġeverything": 3447,
      "illing": 3448,
      "Ġrob": 3449,
      "uous": 3450,
      "Ġopportunity": 3451,
      "Ġadminist": 3452,
      "-year": 3453,
      "Ġeveryone": 3454,
      "ĠProg": 3455,
      "Ġstage": 3456,
      "aught": 3457,
      "Ġexcept": 3458,
      "itable": 3459,
      "ĠOct": 3460,
      "Ġreceive": 3461,
      "Ġimag": 3462,
      "Ġcou": 3463,
      "Ġdead": 3464,
      "Ġoccurs": 3465,
      "Ġproviding": 3466,
      "Ġanything": 3467,
      "Ġdrugs": 3468,
      "rees": 3469,
      "Ġfra": 3470,
      "ula": 3471,
      "Ġwinter": 3472,
      "ĠFl": 3473,
      "Ġexpected": 3474,
      "inese": 3475,
      "Ġsmaller": 3476,
      "iar": 3477,
      "mission": 3478,
      "Ġrecommend": 3479,
      "ĠFrom": 3480,
      "Ġproperty": 3481,
      "ribute": 3482,
      "Ġcru": 3483,
      "Ġcommonly": 3484,
      "Ġep": 3485,
      "Ġjoint": 3486,
      "Ġpet": 3487,
      "Ġtrying": 3488,
      "att": 3489,
      "Ġinsp": 3490,
      "Ġexposure": 3491,
      "Ġguid": 3492,
      "ĠAssoci": 3493,
      "Ġunc": 3494,
      "75": 3495,
      "Ġbaby": 3496,
      "Ġpractices": 3497,
      "Ġswe": 3498,
      "oday": 3499,
      "Ġoverall": 3500,
      "EN": 3501,
      "Ġdescribed": 3502,
      "Ġbasis": 3503,
      "Ġlocation": 3504,
      "uments": 3505,
      "Ġvict": 3506,
      "ster": 3507,
      "olar": 3508,
      "Ġbillion": 3509,
      "Ġestablish": 3510,
      "Ġball": 3511,
      "Ġdate": 3512,
      "Ġagree": 3513,
      "Ġtransl": 3514,
      "Ġmis": 3515,
      "ĠJune": 3516,
      "Ġdied": 3517,
      "ĠEngland": 3518,
      "orpor": 3519,
      "ulated": 3520,
      "Ġfile": 3521,
      "Ġvisual": 3522,
      "ĠHistory": 3523,
      "Ġcitiz": 3524,
      "Ġeconomy": 3525,
      "Ġrise": 3526,
      "ĠSept": 3527,
      "Ġfederal": 3528,
      "tery": 3529,
      "Ġenh": 3530,
      "Ġbirds": 3531,
      "Ġelectr": 3532,
      "Ġimmune": 3533,
      "www": 3534,
      "Ġwon": 3535,
      "Ġgoes": 3536,
      "Ġhous": 3537,
      "Ġlaws": 3538,
      "ĠEducation": 3539,
      "icate": 3540,
      "uff": 3541,
      "ĠPark": 3542,
      "ospital": 3543,
      "99": 3544,
      "ĠMus": 3545,
      "Ġdiscovered": 3546,
      "ica": 3547,
      "ellig": 3548,
      "Ġfruit": 3549,
      "ĠBar": 3550,
      "ĠRead": 3551,
      "Ġstandards": 3552,
      "Ġtrade": 3553,
      "Ġdepend": 3554,
      "Ġanti": 3555,
      "Ġmention": 3556,
      "ilos": 3557,
      "ĠGra": 3558,
      "Ġsteps": 3559,
      "Ġfather": 3560,
      "ĠMy": 3561,
      "Ġmid": 3562,
      "enge": 3563,
      "arian": 3564,
      "Ġcontroll": 3565,
      "Ġfinal": 3566,
      "Ġstrength": 3567,
      "ashington": 3568,
      "Ġtrack": 3569,
      "Ġnutri": 3570,
      "Ġusers": 3571,
      "vert": 3572,
      "36": 3573,
      "see": 3574,
      "exic": 3575,
      "Ġcook": 3576,
      "Ġbeyond": 3577,
      "Ġinteresting": 3578,
      "uk": 3579,
      "Ġcompletely": 3580,
      "Ġsuccessful": 3581,
      "omy": 3582,
      "ĠTechn": 3583,
      "eal": 3584,
      "Ġmouth": 3585,
      "Ġillness": 3586,
      "ests": 3587,
      "water": 3588,
      "Ġsigns": 3589,
      "Ġgenetic": 3590,
      "Ġpen": 3591,
      "ama": 3592,
      "Ġmodels": 3593,
      "Ġsett": 3594,
      "95": 3595,
      "Ġnamed": 3596,
      "Ġbeg": 3597,
      "Ġscale": 3598,
      "ĠAugust": 3599,
      "Ġsaw": 3600,
      "Ġcollection": 3601,
      "Ġmaintain": 3602,
      "Ġpurch": 3603,
      "ĠCounty": 3604,
      "ĠJesus": 3605,
      "ĠGreat": 3606,
      "Ġtox": 3607,
      "Ġdegree": 3608,
      "ĠOur": 3609,
      "Ġtit": 3610,
      "Ġvia": 3611,
      "iable": 3612,
      "ĠSystem": 3613,
      "ĠEven": 3614,
      "Ġfear": 3615,
      "ĠPresident": 3616,
      "Ġreligious": 3617,
      "Ġfollowed": 3618,
      "Some": 3619,
      "Ġuser": 3620,
      "Ġinstru": 3621,
      "Ġpredict": 3622,
      "Ġasked": 3623,
      "Ġjud": 3624,
      "Ġeffort": 3625,
      "Ġconsequ": 3626,
      "ĠApril": 3627,
      "Ġord": 3628,
      "ĠDav": 3629,
      "Ġconstant": 3630,
      "Ġorganization": 3631,
      "apter": 3632,
      "Ġmachine": 3633,
      "Ġperfect": 3634,
      "ocks": 3635,
      "Ġrich": 3636,
      "Ġconflic": 3637,
      "Ġalone": 3638,
      "ony": 3639,
      "anish": 3640,
      "rick": 3641,
      "Ġrules": 3642,
      "IT": 3643,
      "Ġleave": 3644,
      "Ġpowerful": 3645,
      "life": 3646,
      "ensity": 3647,
      "Ġund": 3648,
      "bit": 3649,
      "Ġapprox": 3650,
      "ros": 3651,
      "Ġhair": 3652,
      "Ġmob": 3653,
      "ĠAccording": 3654,
      "Ġemissions": 3655,
      "Ġwoman": 3656,
      "ĠInc": 3657,
      "Ġteach": 3658,
      "ĠCity": 3659,
      "ira": 3660,
      "orks": 3661,
      "book": 3662,
      "Ġacad": 3663,
      "Ġlegal": 3664,
      "Ġten": 3665,
      "Ġwond": 3666,
      "Ġcommerc": 3667,
      "Ġmeasures": 3668,
      "ĠJuly": 3669,
      "Ġremember": 3670,
      "gery": 3671,
      "Ġnothing": 3672,
      "co": 3673,
      "Ġdisplay": 3674,
      "Ġder": 3675,
      "):": 3676,
      "Ġatmosp": 3677,
      "Ġchallenges": 3678,
      "back": 3679,
      "Ġneigh": 3680,
      "itch": 3681,
      "ords": 3682,
      "aters": 3683,
      "oration": 3684,
      "ĠChinese": 3685,
      "Ġgarden": 3686,
      "-e": 3687,
      "hemat": 3688,
      "Ġfair": 3689,
      "iples": 3690,
      "65": 3691,
      "med": 3692,
      "Ġplaced": 3693,
      "Ġefficient": 3694,
      "Ġcateg": 3695,
      "Ġproperties": 3696,
      "Ġhistorical": 3697,
      "Ġtissue": 3698,
      "Ġwrote": 3699,
      "Ġantib": 3700,
      "ĠInst": 3701,
      "ios": 3702,
      "ero": 3703,
      "Ġstories": 3704,
      "Ġsymbol": 3705,
      "Ġhyp": 3706,
      "AC": 3707,
      "rael": 3708,
      "ĠThen": 3709,
      "Ġhttp": 3710,
      "bur": 3711,
      "Ġson": 3712,
      "Ġcommand": 3713,
      "ĠMexic": 3714,
      "Ġdifferences": 3715,
      "ĠWashington": 3716,
      "ĠRed": 3717,
      "eech": 3718,
      "Ġinnov": 3719,
      "Ġearlier": 3720,
      "Ġgold": 3721,
      "Ġcoming": 3722,
      "lim": 3723,
      "ĠCong": 3724,
      "Ġsequ": 3725,
      "aste": 3726,
      "Ġmember": 3727,
      "Ġreduced": 3728,
      "oe": 3729,
      "Ġroad": 3730,
      "Ġshall": 3731,
      "Ġenter": 3732,
      "craft": 3733,
      "Ġalcohol": 3734,
      "Ġtou": 3735,
      "Ġmig": 3736,
      "unch": 3737,
      "aur": 3738,
      "uit": 3739,
      "ibly": 3740,
      ".)": 3741,
      "osy": 3742,
      "33": 3743,
      "Ġanx": 3744,
      "ought": 3745,
      "ĠWilliam": 3746,
      "Ġmax": 3747,
      "Ġvirt": 3748,
      "ĠChristian": 3749,
      "amic": 3750,
      "Ġgir": 3751,
      "ĠHigh": 3752,
      "Ġcities": 3753,
      "Ġpiece": 3754,
      "sec": 3755,
      "Ġpatterns": 3756,
      "Ġassign": 3757,
      "Ġexec": 3758,
      "Ġeight": 3759,
      "Pro": 3760,
      "Ġmiss": 3761,
      "ĠMc": 3762,
      "Ġguide": 3763,
      "Ġincreases": 3764,
      "Ġapplied": 3765,
      "Ġidentified": 3766,
      "-S": 3767,
      "Ġcorn": 3768,
      "Ġhuge": 3769,
      "Ġmal": 3770,
      "Ġfresh": 3771,
      "Ġoffers": 3772,
      "Ġ+": 3773,
      "Ġmoving": 3774,
      "ara": 3775,
      "Ġdidn": 3776,
      "Ġclassroom": 3777,
      "Ġplastic": 3778,
      "Ġallowed": 3779,
      "Ġing": 3780,
      "Ġformed": 3781,
      "Ġbreast": 3782,
      "ygen": 3783,
      "cember": 3784,
      "known": 3785,
      "ĠDuring": 3786,
      "Ġversion": 3787,
      "Ġblue": 3788,
      "Ġchanged": 3789,
      "Ġpoly": 3790,
      "ham": 3791,
      "Ġchoice": 3792,
      "ĠUse": 3793,
      "rome": 3794,
      "Ġopportunities": 3795,
      "Ġlimit": 3796,
      "Ġcollabor": 3797,
      "Ġexplore": 3798,
      "Ġbox": 3799,
      "Ġcomponents": 3800,
      "Ġmajority": 3801,
      "ĠAustralia": 3802,
      "isl": 3803,
      "Ġcontext": 3804,
      "Ġstar": 3805,
      "can": 3806,
      "iny": 3807,
      "ĠVir": 3808,
      "Ġroot": 3809,
      "Ġhon": 3810,
      "ogen": 3811,
      "Ġdat": 3812,
      "Ġforces": 3813,
      "Ġassist": 3814,
      "ĠDNA": 3815,
      "Ġfindings": 3816,
      "Ġeducational": 3817,
      "ĠWater": 3818,
      "ĠDevelop": 3819,
      "Ġstrugg": 3820,
      "Ġillust": 3821,
      "airs": 3822,
      "Ġsect": 3823,
      "fess": 3824,
      "Ġabsor": 3825,
      "ĠUK": 3826,
      "Ġcry": 3827,
      "Ġnote": 3828,
      "fl": 3829,
      "ĠAre": 3830,
      "Ġoptions": 3831,
      "Ġpicture": 3832,
      "pped": 3833,
      "Ġfemale": 3834,
      "ĠEast": 3835,
      "Ġthousands": 3836,
      "ĠSur": 3837,
      "Ġpow": 3838,
      "enty": 3839,
      "Ġcapacity": 3840,
      "ocol": 3841,
      "mitted": 3842,
      "ĠNA": 3843,
      "97": 3844,
      "aled": 3845,
      "irection": 3846,
      "ĠSeptember": 3847,
      "Ġconsumption": 3848,
      "Ġfunctions": 3849,
      "Ġstyle": 3850,
      "ĠCommun": 3851,
      "Ġsch": 3852,
      "era": 3853,
      "ingu": 3854,
      "iring": 3855,
      "Ġfully": 3856,
      "Ġmilk": 3857,
      "Ġtopic": 3858,
      "ĠSim": 3859,
      "Ġrunning": 3860,
      "ĠDis": 3861,
      "rec": 3862,
      "Ġeffic": 3863,
      "Ġprice": 3864,
      "Ġdetect": 3865,
      "Ġarchitect": 3866,
      "Ġking": 3867,
      "ĠNow": 3868,
      "ondon": 3869,
      "related": 3870,
      "Ġshowed": 3871,
      "Ġunit": 3872,
      "iful": 3873,
      "ĠBlack": 3874,
      "Ġworked": 3875,
      "ford": 3876,
      "edia": 3877,
      "Ġbalance": 3878,
      "Ġdestro": 3879,
      "ĠSince": 3880,
      "ĠAlso": 3881,
      "Ġtask": 3882,
      "Ġacqu": 3883,
      "ĠChurch": 3884,
      "Ġnames": 3885,
      "ĠVal": 3886,
      "Ġmap": 3887,
      "que": 3888,
      "ste": 3889,
      "Ġrelatively": 3890,
      "ĠBecause": 3891,
      "Ġfactor": 3892,
      "iate": 3893,
      "odes": 3894,
      "Be": 3895,
      "Ġconvers": 3896,
      "Ġstim": 3897,
      "à¤": 3898,
      "lin": 3899,
      "eding": 3900,
      "Ġelement": 3901,
      "Ġexpand": 3902,
      "Ġoccup": 3903,
      "Ġactions": 3904,
      "Ad": 3905,
      "Ġinsect": 3906,
      "ovember": 3907,
      "Ġworth": 3908,
      "Ġrule": 3909,
      "Ġwatch": 3910,
      "Ġdisorder": 3911,
      "Ġhimself": 3912,
      "Ġplanning": 3913,
      "Ġtechnologies": 3914,
      "Ġdepression": 3915,
      "Ġeasier": 3916,
      "reet": 3917,
      "Ġchance": 3918,
      "more": 3919,
      "Ġmuscle": 3920,
      "ĠPeople": 3921,
      "aul": 3922,
      "bre": 3923,
      "inated": 3924,
      "Ġvision": 3925,
      "Ġglass": 3926,
      "Ġcelebr": 3927,
      "cont": 3928,
      "rehens": 3929,
      "Ġbone": 3930,
      "iences": 3931,
      "Ġformer": 3932,
      "Ġforward": 3933,
      "abilities": 3934,
      "Ġexisting": 3935,
      "Ġ:": 3936,
      "Ġgiving": 3937,
      "Ġemp": 3938,
      "Ġpromot": 3939,
      "Ġextremely": 3940,
      "aid": 3941,
      "Ġspirit": 3942,
      "Ġfamous": 3943,
      "ĠCom": 3944,
      "aint": 3945,
      "ev": 3946,
      "Ġhappen": 3947,
      "Ġmoment": 3948,
      "hab": 3949,
      "ĠGovern": 3950,
      "ĠIsrael": 3951,
      "Ġdecades": 3952,
      "Ġmo": 3953,
      "Ġconstit": 3954,
      "ĠJanuary": 3955,
      "Ġfert": 3956,
      "off": 3957,
      "Ġpresence": 3958,
      "atin": 3959,
      "Ġgoals": 3960,
      "Ġdetails": 3961,
      "Ġexplain": 3962,
      "orage": 3963,
      "Ġcompar": 3964,
      "ĠMod": 3965,
      "yd": 3966,
      "ĠOctober": 3967,
      "Ġstaff": 3968,
      "Ġmonit": 3969,
      "uro": 3970,
      "Ġsurvey": 3971,
      "Ġspring": 3972,
      "Ġstrategies": 3973,
      "Ġinstance": 3974,
      "phas": 3975,
      "Ġitems": 3976,
      "ulum": 3977,
      "Ġelectricity": 3978,
      "Ġconstruct": 3979,
      "Ġstatus": 3980,
      "Ġpick": 3981,
      "wide": 3982,
      "Ġperhaps": 3983,
      "Ġnative": 3984,
      "Ġriver": 3985,
      "Ġmission": 3986,
      "rief": 3987,
      "Ġreports": 3988,
      "ĠBra": 3989,
      "Ġexcess": 3990,
      "Ġexperiences": 3991,
      "ĠSan": 3992,
      "ĠFeb": 3993,
      "Ġdistance": 3994,
      "rupt": 3995,
      "Ġjournal": 3996,
      "Ġbelief": 3997,
      "encies": 3998,
      "ees": 3999,
      "Ġgain": 4000,
      "Ġasse": 4001,
      "Ġchurch": 4002,
      "Ġcontinued": 4003,
      "Ġiron": 4004,
      "ĠTrans": 4005,
      "ĠEach": 4006,
      "ocr": 4007,
      "Ġattract": 4008,
      "ĠEnvironment": 4009,
      "Ġsave": 4010,
      "ament": 4011,
      "iant": 4012,
      "They": 4013,
      "ologist": 4014,
      "asks": 4015,
      "Ġexhib": 4016,
      "eces": 4017,
      "Ġutil": 4018,
      "Ġvill": 4019,
      "Ġfeature": 4020,
      "Un": 4021,
      "Ġappears": 4022,
      "ĠPat": 4023,
      "Ġgraph": 4024,
      "Ġrat": 4025,
      "Ġweak": 4026,
      "All": 4027,
      "Ġfriend": 4028,
      "Ġplans": 4029,
      "Ġregions": 4030,
      "ifically": 4031,
      "Ġliqu": 4032,
      "DA": 4033,
      "Ġwrong": 4034,
      "Ġeventually": 4035,
      "ĠRoman": 4036,
      "Ġcontract": 4037,
      "ternal": 4038,
      "Ġinstruct": 4039,
      "Ġtemperatures": 4040,
      "Ġsuggests": 4041,
      "ux": 4042,
      "Ġstructures": 4043,
      "Ġvo": 4044,
      "Ġkid": 4045,
      "Ġmedicine": 4046,
      "Ġapply": 4047,
      "hors": 4048,
      "men": 4049,
      "ube": 4050,
      "ĠJust": 4051,
      "ĠSch": 4052,
      "alt": 4053,
      "Ġtooth": 4054,
      "zz": 4055,
      "After": 4056,
      "Ġgave": 4057,
      "aign": 4058,
      "Ġtreated": 4059,
      "edom": 4060,
      "pris": 4061,
      "48": 4062,
      "98": 4063,
      "uild": 4064,
      "icip": 4065,
      "ses": 4066,
      "Ġequal": 4067,
      "Ġnutrition": 4068,
      "house": 4069,
      "Ġbed": 4070,
      "Ġrot": 4071,
      "ĠFin": 4072,
      "ĠPol": 4073,
      ".e": 4074,
      "Ġdefined": 4075,
      "Ġurban": 4076,
      "Ġlearned": 4077,
      "orge": 4078,
      "Ġrepe": 4079,
      "Ġgeneration": 4080,
      "Ġevolution": 4081,
      "Ġoxygen": 4082,
      "Ġsignificantly": 4083,
      "ĠTheir": 4084,
      "Ġbelieved": 4085,
      "Ġboard": 4086,
      "EC": 4087,
      "lege": 4088,
      "Ġtransfer": 4089,
      "Ġfigure": 4090,
      "igen": 4091,
      "Ġremove": 4092,
      "Ġincome": 4093,
      "Ġcourt": 4094,
      "Ġmut": 4095,
      "Ġcommercial": 4096,
      "Ġspect": 4097,
      "iology": 4098,
      "apers": 4099,
      "ĠLondon": 4100,
      "Ġqual": 4101,
      "force": 4102,
      "ĠGermany": 4103,
      "gypt": 4104,
      "Ġrequirements": 4105,
      "Ġheavy": 4106,
      "ĠDecember": 4107,
      "Ġhomes": 4108,
      "Ġdogs": 4109,
      "Ġchallenge": 4110,
      "Ġresistance": 4111,
      "Ġindustrial": 4112,
      "Ġden": 4113,
      "Ġbecoming": 4114,
      "iding": 4115,
      "Ġmetal": 4116,
      "ĠRo": 4117,
      "Ġcausing": 4118,
      "ares": 4119,
      "ĠUnion": 4120,
      "Ġdirection": 4121,
      "âĢĿ,": 4122,
      "Ġvary": 4123,
      "ĠGreen": 4124,
      "Ġemail": 4125,
      "ĠProt": 4126,
      "Ġphilos": 4127,
      "-A": 4128,
      "Ġcycle": 4129,
      "Ġoffice": 4130,
      "Ġtele": 4131,
      "Ġrisks": 4132,
      "ĠHouse": 4133,
      "ĠSociety": 4134,
      "Ġnovel": 4135,
      "ographic": 4136,
      "Ġdivid": 4137,
      "pective": 4138,
      "-C": 4139,
      "Ġpeace": 4140,
      "Ġvitamin": 4141,
      "Ġfavor": 4142,
      "Ġhighest": 4143,
      "ĠProgram": 4144,
      "ĠAssociation": 4145,
      "Ġsolutions": 4146,
      "ruary": 4147,
      "Ġstream": 4148,
      "According": 4149,
      "Ġinflamm": 4150,
      "care": 4151,
      "Ġseven": 4152,
      "Ġpassed": 4153,
      "cious": 4154,
      "Ġclinical": 4155,
      "AL": 4156,
      "Ġresource": 4157,
      "Ġcitizens": 4158,
      "oma": 4159,
      "Ġdisorders": 4160,
      "ĠCoun": 4161,
      "isation": 4162,
      "Ġrelease": 4163,
      "Ġmale": 4164,
      "Ġorganizations": 4165,
      "ĠCour": 4166,
      "Ġrecommended": 4167,
      "Ġseparate": 4168,
      "amb": 4169,
      "Ġgets": 4170,
      "ST": 4171,
      "ĠInternet": 4172,
      "34": 4173,
      "Ġorganic": 4174,
      "37": 4175,
      "ologists": 4176,
      "Ġchronic": 4177,
      "Ġcollege": 4178,
      "42": 4179,
      "rab": 4180,
      "Ġstore": 4181,
      "ĠDon": 4182,
      "Ġreducing": 4183,
      "Ġapproximately": 4184,
      "Ġinfections": 4185,
      "Ġocean": 4186,
      "Ġconducted": 4187,
      "Ġbound": 4188,
      "Ġfix": 4189,
      "Ġflood": 4190,
      "lick": 4191,
      "Ġdecisions": 4192,
      "Ġtrig": 4193,
      "EM": 4194,
      "iance": 4195,
      "38": 4196,
      "bed": 4197,
      "Ġimmediately": 4198,
      "Ġbodies": 4199,
      "Ġslight": 4200,
      "Ġreleased": 4201,
      "Ġchanging": 4202,
      "Ġexperiment": 4203,
      "Ġcand": 4204,
      "Ġshap": 4205,
      "nes": 4206,
      "Ġhappens": 4207,
      "ĠCur": 4208,
      "Ġwidely": 4209,
      "char": 4210,
      "Ġspeech": 4211,
      "Ġstarting": 4212,
      "emy": 4213,
      "ĠChildren": 4214,
      "ĠFrance": 4215,
      "Ġpul": 4216,
      "Ġestimated": 4217,
      "Ġexperts": 4218,
      "udd": 4219,
      "Ph": 4220,
      "resp": 4221,
      "Ġdri": 4222,
      "Ġlayer": 4223,
      "Is": 4224,
      "ĠNovember": 4225,
      "Ġhorm": 4226,
      "Ġfields": 4227,
      "Ġintellig": 4228,
      "Ġbottom": 4229,
      "Ġseeds": 4230,
      "However": 4231,
      "Ġpollution": 4232,
      "Ġforeign": 4233,
      "Ġves": 4234,
      "Ġiniti": 4235,
      "Ġintroduced": 4236,
      "Ġdrop": 4237,
      "Ġnotes": 4238,
      "ager": 4239,
      "Ġsurgery": 4240,
      "asion": 4241,
      "Ġlung": 4242,
      "Ġgames": 4243,
      "Ġpartners": 4244,
      "Ġbuy": 4245,
      "ingly": 4246,
      "Ġcombination": 4247,
      "ĠCor": 4248,
      "Ġagg": 4249,
      "Ġdrive": 4250,
      "Ġaspects": 4251,
      "Ġcarried": 4252,
      "ĠJewish": 4253,
      "opy": 4254,
      "ĠBr": 4255,
      "Ġobserved": 4256,
      "Ġhousehold": 4257,
      "Ġmath": 4258,
      "ĠFound": 4259,
      "ken": 4260,
      "riculum": 4261,
      "Ġinjury": 4262,
      "ĠAng": 4263,
      "ructure": 4264,
      "Ġinvolves": 4265,
      "iment": 4266,
      "Ġsample": 4267,
      "Ġbuildings": 4268,
      "ĠOver": 4269,
      "Ġreality": 4270,
      "ky": 4271,
      "Ġpresented": 4272,
      "Ġsexual": 4273,
      "Ġclick": 4274,
      "55": 4275,
      "cast": 4276,
      "Ġrecords": 4277,
      "Ġdangerous": 4278,
      "ida": 4279,
      "...Ċ": 4280,
      "Ġconnected": 4281,
      "Ġalternative": 4282,
      "change": 4283,
      "Ġburn": 4284,
      "Ġsetting": 4285,
      "Ġanxiety": 4286,
      "wards": 4287,
      "Res": 4288,
      "/or": 4289,
      "ĠCollege": 4290,
      "96": 4291,
      "Ġready": 4292,
      "Ġdyn": 4293,
      "Ġfilm": 4294,
      "Ġalg": 4295,
      "Ġassum": 4296,
      "Ġfrequently": 4297,
      "Ġserve": 4298,
      "ĠLet": 4299,
      "Ġtechnique": 4300,
      "elines": 4301,
      "Ġbank": 4302,
      "ĠLaw": 4303,
      "ĠAut": 4304,
      "ĠWestern": 4305,
      "Ġpopulations": 4306,
      "Ġstatement": 4307,
      "Ġdegrees": 4308,
      "44": 4309,
      "uing": 4310,
      "Ġpi": 4311,
      "olid": 4312,
      "ĠPlan": 4313,
      "ĠUN": 4314,
      "Ġnumerous": 4315,
      "erate": 4316,
      "uses": 4317,
      "Ġpresident": 4318,
      "Here": 4319,
      "Ġexactly": 4320,
      "rie": 4321,
      "cular": 4322,
      "Ġemphas": 4323,
      "-up": 4324,
      "85": 4325,
      "ĠJournal": 4326,
      "41": 4327,
      "ias": 4328,
      "Ġcharacteristics": 4329,
      "Ġliterature": 4330,
      "Ġsand": 4331,
      "ession": 4332,
      "Ġthr": 4333,
      "ĠEgypt": 4334,
      "atform": 4335,
      "omic": 4336,
      "ĠDes": 4337,
      "Ġlandsc": 4338,
      "ald": 4339,
      "Ġencourage": 4340,
      "Ġactual": 4341,
      "ognitive": 4342,
      "Ġstorage": 4343,
      "Ġproperly": 4344,
      "ressive": 4345,
      "ĠGeneral": 4346,
      "Ġanyone": 4347,
      "Ġphen": 4348,
      "tical": 4349,
      "Ġfeeling": 4350,
      "Ġmoved": 4351,
      "Ġprefer": 4352,
      "Ġhelping": 4353,
      "ĠConf": 4354,
      "Ġcovered": 4355,
      "39": 4356,
      "âĢĿ.": 4357,
      "Ġmostly": 4358,
      "Ġletter": 4359,
      "anging": 4360,
      "imens": 4361,
      "Ġassessment": 4362,
      "Ġthick": 4363,
      "Ġperformed": 4364,
      "Ġviolence": 4365,
      "omas": 4366,
      "ĠSpec": 4367,
      "ĠCongress": 4368,
      "antic": 4369,
      "ndrome": 4370,
      "works": 4371,
      "Ġvegetables": 4372,
      "Ġfinding": 4373,
      "Ġupd": 4374,
      "rows": 4375,
      "Ġresulting": 4376,
      "ortunately": 4377,
      "Ġlived": 4378,
      "Ġmag": 4379,
      "Ġnuclear": 4380,
      "Ġplease": 4381,
      "ĠFood": 4382,
      "Ġded": 4383,
      "Ġreplace": 4384,
      "Ġprofessor": 4385,
      "ĠNet": 4386,
      "Ġcontrast": 4387,
      "HE": 4388,
      "urance": 4389,
      "Ġoption": 4390,
      "Ġphysic": 4391,
      "Ġacademic": 4392,
      "Ġ#": 4393,
      "Ġseed": 4394,
      "unction": 4395,
      "ulf": 4396,
      "Ġhear": 4397,
      "Ġbackground": 4398,
      "Ġprepar": 4399,
      "atically": 4400,
      "order": 4401,
      "icial": 4402,
      "ĠMuseum": 4403,
      "ĠPhil": 4404,
      "ĠMary": 4405,
      "Many": 4406,
      "Ġvessel": 4407,
      "\".": 4408,
      "Ġradiation": 4409,
      "Ġmeat": 4410,
      "Our": 4411,
      "Ġparticipants": 4412,
      "osystem": 4413,
      "ping": 4414,
      "Ġvul": 4415,
      "cers": 4416,
      "Ġtour": 4417,
      "ĠMich": 4418,
      "Ġcopy": 4419,
      "Ġtrust": 4420,
      "Ġgrade": 4421,
      "Ġwanted": 4422,
      "olved": 4423,
      "Ġprofession": 4424,
      "Ġtum": 4425,
      "ET": 4426,
      "raw": 4427,
      "ĠTex": 4428,
      "Ġtrend": 4429,
      "Ġhearing": 4430,
      "Ġlinked": 4431,
      "ieties": 4432,
      "ĠWeb": 4433,
      "Ġdivers": 4434,
      "othes": 4435,
      "Ġconnection": 4436,
      "pping": 4437,
      "Ġtrou": 4438,
      "Ġign": 4439,
      "64": 4440,
      "Ġmanage": 4441,
      "ĠOnce": 4442,
      "Ġadvanced": 4443,
      "ĠPublic": 4444,
      "Ġengineering": 4445,
      "Why": 4446,
      "Ġreferred": 4447,
      "Ġemotional": 4448,
      "ĠArch": 4449,
      "Ġfailure": 4450,
      "Ġrelationships": 4451,
      "ĠMat": 4452,
      "Ġeggs": 4453,
      "Ġhelped": 4454,
      "Ġpal": 4455,
      "ĠPal": 4456,
      "Ġload": 4457,
      "Ġspot": 4458,
      "bal": 4459,
      "ample": 4460,
      "ĠOb": 4461,
      "Ġoperations": 4462,
      "Ġdesp": 4463,
      "Ġsav": 4464,
      "Ġwin": 4465,
      "Ġreference": 4466,
      "Ġexposed": 4467,
      "Ġoutput": 4468,
      "ously": 4469,
      "Ġcomprehens": 4470,
      "Ġauthors": 4471,
      "rant": 4472,
      "Ġexperienced": 4473,
      "ĠChe": 4474,
      "Ġannual": 4475,
      "erences": 4476,
      "ĠâĢ¦": 4477,
      "Ġcris": 4478,
      "PS": 4479,
      "Ġdepending": 4480,
      "Ġdistribution": 4481,
      "Ġinitial": 4482,
      "Ġgene": 4483,
      "Ġlesson": 4484,
      "Ġscen": 4485,
      "Ġpolicies": 4486,
      "ogle": 4487,
      "Ġsac": 4488,
      "Ġcore": 4489,
      "Ġmessage": 4490,
      "Ġgender": 4491,
      "Ġexpert": 4492,
      "Â°": 4493,
      "enth": 4494,
      "Ġmer": 4495,
      "Ġamounts": 4496,
      "Ġleads": 4497,
      "Ġradio": 4498,
      "Ġexcell": 4499,
      "ĠJapanese": 4500,
      "porary": 4501,
      "che": 4502,
      "Ġopin": 4503,
      "Ġhom": 4504,
      "Ġupper": 4505,
      "Ġinternal": 4506,
      "ĠInter": 4507,
      ".)Ċ": 4508,
      "ilit": 4509,
      "onds": 4510,
      "Ġremoved": 4511,
      "Ġdiscussion": 4512,
      "Ġfine": 4513,
      "Ġdestroy": 4514,
      "ĠSpanish": 4515,
      "Ġmotor": 4516,
      "Ġsustainable": 4517,
      "rum": 4518,
      "Ġconservation": 4519,
      "Ġmanufacture": 4520,
      "urt": 4521,
      "Ġesc": 4522,
      "Ġchemicals": 4523,
      "ĠStudents": 4524,
      "iveness": 4525,
      "Ġlegisl": 4526,
      "oking": 4527,
      "clus": 4528,
      "Ġyellow": 4529,
      "Ġclearly": 4530,
      "Ġprocessing": 4531,
      "II": 4532,
      "Ġclasses": 4533,
      "Ġincorpor": 4534,
      "Ġconcepts": 4535,
      "Ġdram": 4536,
      "Ġadjust": 4537,
      "ĠFebruary": 4538,
      "key": 4539,
      "Ġindependent": 4540,
      "Ġeffectively": 4541,
      "Ġcampaign": 4542,
      "Ġpromote": 4543,
      "Ġjour": 4544,
      "erved": 4545,
      "ĠWhy": 4546,
      "tered": 4547,
      "Ġpip": 4548,
      "ped": 4549,
      "roph": 4550,
      "91": 4551,
      "RE": 4552,
      "Ġgrass": 4553,
      "Ġmathemat": 4554,
      "Ġelimin": 4555,
      "Ġinterested": 4556,
      "Ġcomfort": 4557,
      "Ġcoal": 4558,
      "ĠDec": 4559,
      "Ġdistinct": 4560,
      "-le": 4561,
      "Ġsolid": 4562,
      "Ġcalc": 4563,
      "Ġdie": 4564,
      "place": 4565,
      "amental": 4566,
      "Ġbeautiful": 4567,
      "ĠWork": 4568,
      "ĠGreek": 4569,
      "Ġdescribe": 4570,
      "ĠMa": 4571,
      "43": 4572,
      "ij": 4573,
      "Ġminor": 4574,
      "Ġturned": 4575,
      "hetic": 4576,
      "Ġreprodu": 4577,
      "Ġple": 4578,
      "Ġsquare": 4579,
      "Ġcreation": 4580,
      "Ġatmosphere": 4581,
      "ĠUnder": 4582,
      "\",": 4583,
      "rog": 4584,
      "ĠAir": 4585,
      "Ġdiscover": 4586,
      "Ġvolume": 4587,
      "Ġunivers": 4588,
      "Ġvaccine": 4589,
      "ĠNASA": 4590,
      "That": 4591,
      "Ġvictim": 4592,
      "ĠProject": 4593,
      ".C": 4594,
      "Ġpages": 4595,
      ");": 4596,
      "Ġfarmers": 4597,
      "orial": 4598,
      "zing": 4599,
      "ĠJames": 4600,
      "Ġmuscles": 4601,
      "Ġlanguages": 4602,
      "ophy": 4603,
      "gment": 4604,
      "Ġhighlight": 4605,
      "Ġtruth": 4606,
      "Ġpric": 4607,
      "-th": 4608,
      "OS": 4609,
      "AM": 4610,
      "ĠTherefore": 4611,
      "Ġpresc": 4612,
      "rete": 4613,
      "Ġdoub": 4614,
      "Ġefficiency": 4615,
      "Ġlooks": 4616,
      "Ġdefinition": 4617,
      "Ġisland": 4618,
      "Ġinput": 4619,
      "Ġtransform": 4620,
      "Ġcounter": 4621,
      "Ġfol": 4622,
      "ocal": 4623,
      "Ġdefic": 4624,
      "Im": 4625,
      "Ġstorm": 4626,
      "mal": 4627,
      "igure": 4628,
      "Ġnutrients": 4629,
      "met": 4630,
      "Ġawareness": 4631,
      "ĠProfess": 4632,
      "Ġdatab": 4633,
      "ĠOrgan": 4634,
      "Ġadvantage": 4635,
      "ault": 4636,
      "Ġmist": 4637,
      "Ġisol": 4638,
      "Although": 4639,
      "Sp": 4640,
      "Ġarticles": 4641,
      "Ġmel": 4642,
      "Ġappe": 4643,
      "umn": 4644,
      "Ġpieces": 4645,
      "Ġreaction": 4646,
      "Ġrace": 4647,
      "Ġdiagnosis": 4648,
      "Ġkilled": 4649,
      "Ġround": 4650,
      "92": 4651,
      "Ġarm": 4652,
      "Now": 4653,
      "ishing": 4654,
      "Ġinvent": 4655,
      "Ġunf": 4656,
      "Ġelectrical": 4657,
      "Ġrecy": 4658,
      "Ġconcerns": 4659,
      "Ġplatform": 4660,
      "Ġcontribute": 4661,
      "Sh": 4662,
      "Ġnoted": 4663,
      "Ar": 4664,
      "ĠHIV": 4665,
      "Ġfaith": 4666,
      "Ġclos": 4667,
      "Ġinvolve": 4668,
      "Ġprinciples": 4669,
      "Ġkill": 4670,
      "ĠThus": 4671,
      "ĠSun": 4672,
      "ressed": 4673,
      "Ġwet": 4674,
      "94": 4675,
      "Most": 4676,
      "Ġhour": 4677,
      "ĠDevelopment": 4678,
      "ĠDavid": 4679,
      "ĠAv": 4680,
      "Ġsynt": 4681,
      "Ġrelevant": 4682,
      "Ġgenes": 4683,
      "ĠIts": 4684,
      "Ġsouthern": 4685,
      "ĠST": 4686,
      "Ġinfluen": 4687,
      "Ġterrit": 4688,
      "ĠMount": 4689,
      "ball": 4690,
      "Ġbattle": 4691,
      "Ġimproved": 4692,
      "Ġdigest": 4693,
      "ĠCouncil": 4694,
      "acing": 4695,
      "Ġflowers": 4696,
      "ĠMexico": 4697,
      "uration": 4698,
      "-related": 4699,
      "ĠMor": 4700,
      "rep": 4701,
      "Ġspent": 4702,
      "Ġtrib": 4703,
      "ĠHel": 4704,
      "Ġprepared": 4705,
      "ams": 4706,
      "ĠAsia": 4707,
      "Ġpret": 4708,
      "rates": 4709,
      "ĠIsland": 4710,
      "Ġconflict": 4711,
      "ded": 4712,
      "Ġdrinking": 4713,
      "'ll": 4714,
      "Ġheard": 4715,
      "Ġmeeting": 4716,
      "Ġtreatments": 4717,
      "ormal": 4718,
      "ĠMars": 4719,
      "Ġhit": 4720,
      "Ġvulner": 4721,
      "board": 4722,
      "ĠTexas": 4723,
      "Ġpreviously": 4724,
      "ĠLord": 4725,
      "Ġunits": 4726,
      "ception": 4727,
      "ĠFore": 4728,
      "Ġconsult": 4729,
      "Ġregarding": 4730,
      "Ġsort": 4731,
      "Ġallowing": 4732,
      "standing": 4733,
      "Ġcontinues": 4734,
      "onic": 4735,
      "Ġbud": 4736,
      "Ġaid": 4737,
      "ears": 4738,
      "Ġsituations": 4739,
      "Ġbegins": 4740,
      "rest": 4741,
      "Ġrenew": 4742,
      "Ġvolunt": 4743,
      "Ġowners": 4744,
      "Ġhospital": 4745,
      "-like": 4746,
      "Ġtopics": 4747,
      "ategy": 4748,
      "Ġmeant": 4749,
      "Ġmotiv": 4750,
      "Ġconcern": 4751,
      "Ġfocused": 4752,
      "ĠPress": 4753,
      "Ġmainly": 4754,
      "iverse": 4755,
      "Ġcredit": 4756,
      "bl": 4757,
      "Ġbright": 4758,
      "Ġnorthern": 4759,
      "ĠTest": 4760,
      "ags": 4761,
      "ĠSocial": 4762,
      "Ġparty": 4763,
      "tes": 4764,
      "Ġnotice": 4765,
      "Ġwealth": 4766,
      "Ġbelong": 4767,
      "Ġsong": 4768,
      "ĠRem": 4769,
      "Ġtasks": 4770,
      "93": 4771,
      "Ġaren": 4772,
      "Ġpark": 4773,
      "Ġdetermined": 4774,
      "Ġvital": 4775,
      "Ġcompleted": 4776,
      "Ġstrategy": 4777,
      "Ġimpacts": 4778,
      "]Ċ": 4779,
      "ĠIS": 4780,
      "Ġfoss": 4781,
      "Ġaffects": 4782,
      "Ġtoxic": 4783,
      "Ġsem": 4784,
      "ĠRepublic": 4785,
      "Ġserved": 4786,
      "Ġfib": 4787,
      "Ġdiss": 4788,
      "ĠRev": 4789,
      "akers": 4790,
      "Ġdecided": 4791,
      "Ġhop": 4792,
      "Ġjobs": 4793,
      "Ġfaster": 4794,
      "riage": 4795,
      "Ġkept": 4796,
      "Ġspend": 4797,
      ".D": 4798,
      "Ġflex": 4799,
      "part": 4800,
      "ĠHuman": 4801,
      "Ġobvious": 4802,
      "47": 4803,
      "Ġprocedure": 4804,
      "tee": 4805,
      "ĠGeorge": 4806,
      "Ġfreedom": 4807,
      "Ġheight": 4808,
      "ta": 4809,
      "ĠOff": 4810,
      "Ġtips": 4811,
      "Ġseek": 4812,
      "Ġoperation": 4813,
      "iling": 4814,
      "ĠSpace": 4815,
      "Ġbird": 4816,
      "inate": 4817,
      "ĠEvery": 4818,
      "Ġther": 4819,
      "Ġphase": 4820,
      "ifying": 4821,
      "Ġliquid": 4822,
      "Ġecosystem": 4823,
      "ĠAD": 4824,
      "mark": 4825,
      "acters": 4826,
      "ributed": 4827,
      "Ġpractical": 4828,
      "Ġstraight": 4829,
      "Ġconver": 4830,
      "ĠRel": 4831,
      "Ġyouth": 4832,
      "Ġcircum": 4833,
      "Ġsaying": 4834,
      "Ġconfirm": 4835,
      "Ġshared": 4836,
      "Ġcrucial": 4837,
      "Ġblog": 4838,
      "ĠLa": 4839,
      "Ġfacts": 4840,
      "Ġship": 4841,
      "Ġsounds": 4842,
      "ĠService": 4843,
      "alled": 4844,
      "acific": 4845,
      "Ġmoist": 4846,
      "aturally": 4847,
      "Ġsignal": 4848,
      "Ġcere": 4849,
      "roup": 4850,
      "46": 4851,
      "Ġexplains": 4852,
      "Ġkeeping": 4853,
      "Ġcast": 4854,
      "Ġban": 4855,
      "Ġrul": 4856,
      "Ġdro": 4857,
      "Ġparticles": 4858,
      "Ġconv": 4859,
      "za": 4860,
      "isher": 4861,
      "ĠBel": 4862,
      "kin": 4863,
      "ĠPhys": 4864,
      "-M": 4865,
      "Ġofficial": 4866,
      "comes": 4867,
      "oxide": 4868,
      "Ġcareer": 4869,
      "Ġmentioned": 4870,
      "Ġwonder": 4871,
      "Ġtaught": 4872,
      "Ġemergency": 4873,
      "Ġkinds": 4874,
      "mat": 4875,
      "anted": 4876,
      "Ġoral": 4877,
      "Ġsamples": 4878,
      "Ġpun": 4879,
      "Ġsmart": 4880,
      "Ġkil": 4881,
      "61": 4882,
      "oyal": 4883,
      "Ġnav": 4884,
      "ago": 4885,
      "upp": 4886,
      "Ġrecorded": 4887,
      "ĠMark": 4888,
      "road": 4889,
      "Ġextensive": 4890,
      "Ġmaster": 4891,
      "Ġwaters": 4892,
      "Ġfruits": 4893,
      "Ġpurposes": 4894,
      "Ġroll": 4895,
      "ĠDise": 4896,
      "Ġsalt": 4897,
      "Ġideal": 4898,
      "Ġreligion": 4899,
      "From": 4900,
      "ander": 4901,
      "OT": 4902,
      "Ġreb": 4903,
      "-n": 4904,
      "Ġoperating": 4905,
      "72": 4906,
      "Ġwest": 4907,
      "Ġvot": 4908,
      "Ġhaz": 4909,
      "Ġvehicle": 4910,
      "chers": 4911,
      "wood": 4912,
      "Ġadvice": 4913,
      "51": 4914,
      "Ġprimarily": 4915,
      "ĠMal": 4916,
      "Ġinterpret": 4917,
      "Ġcoord": 4918,
      "osite": 4919,
      "Ġdoll": 4920,
      "astern": 4921,
      "roke": 4922,
      "Ġsurrounding": 4923,
      "ĠLearning": 4924,
      "Ġnerv": 4925,
      "52": 4926,
      "88": 4927,
      "ĠEnergy": 4928,
      "ĠTur": 4929,
      "89": 4930,
      "Ġshowing": 4931,
      "otic": 4932,
      "ĠPort": 4933,
      "Ġlov": 4934,
      "Ġcombined": 4935,
      "Ġthin": 4936,
      "Ġreduction": 4937,
      "ĠDi": 4938,
      "Ġconsequences": 4939,
      "ache": 4940,
      "Ġformat": 4941,
      "Pl": 4942,
      "Ġconclud": 4943,
      "ĠWhite": 4944,
      "49": 4945,
      "Ġcurriculum": 4946,
      "Ġshar": 4947,
      "63": 4948,
      "Ġintended": 4949,
      "eline": 4950,
      "Con": 4951,
      "espite": 4952,
      "Ġfing": 4953,
      "Ġcert": 4954,
      "Ġcenturies": 4955,
      "Ġpaint": 4956,
      "atric": 4957,
      "Ġphone": 4958,
      "rations": 4959,
      "uted": 4960,
      "ixt": 4961,
      "which": 4962,
      "Ġexcellent": 4963,
      "Ġclim": 4964,
      "Ġcharacters": 4965,
      "Ġbrief": 4966,
      "Ġcharge": 4967,
      "ĠMedicine": 4968,
      "ya": 4969,
      "More": 4970,
      "ĠVol": 4971,
      "Ġstars": 4972,
      "Ġliver": 4973,
      "ometimes": 4974,
      "Ġgod": 4975,
      "62": 4976,
      "ii": 4977,
      "Ġlatest": 4978,
      "Ġfamiliar": 4979,
      "Ġspecifically": 4980,
      "Ġvalu": 4981,
      "vision": 4982,
      "'ve": 4983,
      "ĠRober": 4984,
      "Ġcollected": 4985,
      "Ġfrequency": 4986,
      "Ġfluid": 4987,
      "Ġvast": 4988,
      "aker": 4989,
      "Ġformation": 4990,
      "ishes": 4991,
      "ounced": 4992,
      "Ġpotentially": 4993,
      "Ġuns": 4994,
      "ĠBas": 4995,
      "86": 4996,
      "Ġhelpful": 4997,
      "ĠMiss": 4998,
      "ek": 4999,
      "Ġtechnical": 5000,
      "Ġperman": 5001,
      "rastructure": 5002,
      "Ġonto": 5003,
      "ĠClass": 5004,
      "Ġsector": 5005,
      "do": 5006,
      "Ġlose": 5007,
      "itz": 5008,
      "rans": 5009,
      "-B": 5010,
      "ĠSub": 5011,
      "Ġreached": 5012,
      "Ġcrops": 5013,
      "ails": 5014,
      "Ġrefers": 5015,
      "Ġhyper": 5016,
      "Ġmorning": 5017,
      "Ġletters": 5018,
      "ificial": 5019,
      "Ġsupported": 5020,
      "rapy": 5021,
      "Ġtested": 5022,
      "arrow": 5023,
      "clusion": 5024,
      "Ġinstitutions": 5025,
      "Ġastron": 5026,
      "Ġattacks": 5027,
      "Ġexpression": 5028,
      "aughter": 5029,
      "going": 5030,
      "Ġlargely": 5031,
      "Ġaccurate": 5032,
      "Ġdeaths": 5033,
      "Ġgar": 5034,
      "nic": 5035,
      "Ġlinks": 5036,
      "Ġmanner": 5037,
      "Ġmedications": 5038,
      "Ġsnow": 5039,
      "âĢĿĊ": 5040,
      "ĠCath": 5041,
      "Ġcertainly": 5042,
      "ĠBritain": 5043,
      "Ġdirector": 5044,
      "Ġgrown": 5045,
      "Ġdetailed": 5046,
      "Ġsche": 5047,
      "Ġgirls": 5048,
      "Ġpregnancy": 5049,
      "CC": 5050,
      "ĠLatin": 5051,
      "ĠCle": 5052,
      "Ġhabitat": 5053,
      "oughly": 5054,
      "oo": 5055,
      "Ġperiods": 5056,
      "Ġharvest": 5057,
      "Ġstation": 5058,
      "Ġmort": 5059,
      "ipped": 5060,
      "Ġlessons": 5061,
      "Ġplaying": 5062,
      "Ġfinally": 5063,
      "Ġadvance": 5064,
      "verty": 5065,
      "ĠMedical": 5066,
      "ĠVirgin": 5067,
      "othing": 5068,
      "Ġlic": 5069,
      "Ġmonitoring": 5070,
      "stitution": 5071,
      "AD": 5072,
      "Ġstone": 5073,
      "Ġsubjects": 5074,
      "Ġju": 5075,
      "ĠToday": 5076,
      "unk": 5077,
      "Ġinflammation": 5078,
      "Ġcognitive": 5079,
      "Ġindicate": 5080,
      "Ġpoverty": 5081,
      "Ġthoughts": 5082,
      "igenous": 5083,
      "vis": 5084,
      "ancing": 5085,
      "Ġâ": 5086,
      "aj": 5087,
      "Ġrevolution": 5088,
      "umin": 5089,
      "ĠOld": 5090,
      "Ġsecret": 5091,
      "Ġappoint": 5092,
      "Ġtypical": 5093,
      "Ġflat": 5094,
      "ado": 5095,
      "Ġsurpris": 5096,
      "ĠMake": 5097,
      "eters": 5098,
      "Ġnit": 5099,
      "Ġresist": 5100,
      "Ġphenomen": 5101,
      "Ġinternet": 5102,
      "with": 5103,
      "Ġoffered": 5104,
      "ĠCivil": 5105,
      "Ġroots": 5106,
      "rier": 5107,
      "Ġsend": 5108,
      "Ġhundreds": 5109,
      "ĠTechnology": 5110,
      "Ġfiles": 5111,
      "ĠSee": 5112,
      "54": 5113,
      "ĠFoundation": 5114,
      "53": 5115,
      "Ġagricultural": 5116,
      "ework": 5117,
      "roid": 5118,
      "Ġquar": 5119,
      "Ġslightly": 5120,
      "ria": 5121,
      "Ġproposed": 5122,
      "ĠGovernment": 5123,
      "Ġwel": 5124,
      "Ġdouble": 5125,
      "Ġdental": 5126,
      "Ġbill": 5127,
      "76": 5128,
      "Ġdespite": 5129,
      "Ġfort": 5130,
      "alle": 5131,
      "Ġidentity": 5132,
      "Ġstem": 5133,
      "anges": 5134,
      "Ab": 5135,
      "Ġnor": 5136,
      "Ġwhom": 5137,
      "AP": 5138,
      "Ġdiam": 5139,
      "New": 5140,
      "Ġbow": 5141,
      "Ġmetab": 5142,
      "ĠJews": 5143,
      "ĠBay": 5144,
      "ĠDem": 5145,
      "ossible": 5146,
      "Ġfeelings": 5147,
      "Ġeast": 5148,
      "aks": 5149,
      "Ġleader": 5150,
      "Ġsusp": 5151,
      "la": 5152,
      "inding": 5153,
      "56": 5154,
      "Ġproteins": 5155,
      "Ġcomponent": 5156,
      "ĠCentral": 5157,
      "och": 5158,
      "Ġintroduction": 5159,
      "itage": 5160,
      "66": 5161,
      "ĠPaul": 5162,
      "ĠFlor": 5163,
      "RO": 5164,
      "ĠNews": 5165,
      "Ġsatell": 5166,
      "iced": 5167,
      "ĠAcad": 5168,
      "Ġinches": 5169,
      "name": 5170,
      "ras": 5171,
      "Ġinfected": 5172,
      "Ġdepends": 5173,
      "gal": 5174,
      "Ġsettle": 5175,
      "Ġabuse": 5176,
      "68": 5177,
      "Ġwear": 5178,
      "Ġresponsibility": 5179,
      "Ġages": 5180,
      "ĠUsing": 5181,
      "Ġcolors": 5182,
      "Ġincreasingly": 5183,
      "Ġvoice": 5184,
      "Ġstudied": 5185,
      "ĠLou": 5186,
      "Ġperspective": 5187,
      "osa": 5188,
      "Ġgoods": 5189,
      "eria": 5190,
      "ĠAtl": 5191,
      "Ġforced": 5192,
      "tion": 5193,
      "ĠDist": 5194,
      "Ġvent": 5195,
      "ĠHen": 5196,
      "Ġmeasured": 5197,
      "Ġmotion": 5198,
      "ĠJer": 5199,
      "enses": 5200,
      "ĠDirect": 5201,
      "CO": 5202,
      "rich": 5203,
      "Ġkn": 5204,
      "Ġregularly": 5205,
      "rence": 5206,
      "Ġdeliver": 5207,
      "Ġoccurred": 5208,
      "ĠSer": 5209,
      "Ġwalls": 5210,
      "active": 5211,
      "Ġraised": 5212,
      "Ġmobile": 5213,
      "Ġconsists": 5214,
      "Ġbiological": 5215,
      "Ġsus": 5216,
      "Ġdriving": 5217,
      "Ġboost": 5218,
      "Ġinstruction": 5219,
      "Ġgrand": 5220,
      "Ġexplained": 5221,
      "Ġpros": 5222,
      "Ġcrisis": 5223,
      "well": 5224,
      "Ġsyndrome": 5225,
      "ĠData": 5226,
      "Ġpig": 5227,
      "ague": 5228,
      "EL": 5229,
      "Ġingred": 5230,
      "inent": 5231,
      "-sp": 5232,
      "ĠBer": 5233,
      "pen": 5234,
      "berg": 5235,
      "Ġbusinesses": 5236,
      "-D": 5237,
      "-re": 5238,
      "Ġnations": 5239,
      "Ġallerg": 5240,
      "Ġplayed": 5241,
      "Ġresidents": 5242,
      "Ġfacilities": 5243,
      "resents": 5244,
      "ĠPacific": 5245,
      "ĠLake": 5246,
      "Ġadding": 5247,
      "cling": 5248,
      "ĠHol": 5249,
      "celer": 5250,
      "Ġcorresp": 5251,
      "bing": 5252,
      "ĠGoogle": 5253,
      "Ġcardi": 5254,
      "athy": 5255,
      "87": 5256,
      "Ġprotected": 5257,
      "des": 5258,
      "Ġtrain": 5259,
      "lers": 5260,
      "ĠRich": 5261,
      "Ġextent": 5262,
      "Ġspl": 5263,
      "Ġinvestment": 5264,
      "Ġnaturally": 5265,
      "67": 5266,
      "uls": 5267,
      "ĠDef": 5268,
      "Ġhealthcare": 5269,
      "Ġvisible": 5270,
      "Ġlifest": 5271,
      "Ġsen": 5272,
      "Ġkm": 5273,
      "Ġvaluable": 5274,
      "oper": 5275,
      "Ġdepth": 5276,
      "icks": 5277,
      "nel": 5278,
      "Ġpump": 5279,
      "Ġexternal": 5280,
      "ĠIr": 5281,
      "Ġdivided": 5282,
      "Ġpurs": 5283,
      "olars": 5284,
      "Ġsyn": 5285,
      "81": 5286,
      "esity": 5287,
      "Ġwestern": 5288,
      "iated": 5289,
      "ĠMart": 5290,
      "Ġfundamental": 5291,
      "Ġmaximum": 5292,
      "Ġotherwise": 5293,
      "No": 5294,
      "Ġlooked": 5295,
      "Ġcomment": 5296,
      "Ġgreatest": 5297,
      "Ġbrother": 5298,
      "osen": 5299,
      "ompl": 5300,
      "ĠCourt": 5301,
      "Ġstret": 5302,
      "teries": 5303,
      "Ġmillions": 5304,
      "Ġfelt": 5305,
      "Ġsufficient": 5306,
      "inn": 5307,
      "olute": 5308,
      "Ġbrown": 5309,
      "Ġdecrease": 5310,
      "Ġimmig": 5311,
      "ĠBoth": 5312,
      "Ġpush": 5313,
      "âĢĻm": 5314,
      "ensus": 5315,
      "Te": 5316,
      "Ġsuffering": 5317,
      "Ġexpensive": 5318,
      "Ġpil": 5319,
      "Ġhappened": 5320,
      "ĠElect": 5321,
      "Ġlik": 5322,
      "71": 5323,
      "ĠJe": 5324,
      "Another": 5325,
      "igation": 5326,
      "ventional": 5327,
      "umber": 5328,
      "Ġcontrolled": 5329,
      "Do": 5330,
      "Ġrural": 5331,
      "Ġrapidly": 5332,
      "RI": 5333,
      "mp": 5334,
      "Ġenhance": 5335,
      "Ġcomputers": 5336,
      "ascular": 5337,
      "istan": 5338,
      "Ġfloor": 5339,
      "Cl": 5340,
      "ĠMac": 5341,
      "Ġneut": 5342,
      "Ġprices": 5343,
      "57": 5344,
      "84": 5345,
      "ye": 5346,
      "Ġimmun": 5347,
      "ĠSal": 5348,
      "what": 5349,
      "tenance": 5350,
      "Ġbones": 5351,
      "ĠWind": 5352,
      "Ġdiscovery": 5353,
      "ĠBen": 5354,
      "rolog": 5355,
      "Ġcontaining": 5356,
      "anguage": 5357,
      "isp": 5358,
      "Ġinstrument": 5359,
      "Ġwire": 5360,
      "Ġinfrastructure": 5361,
      "Ġsuffer": 5362,
      "Ġcontinuous": 5363,
      "Ġexplan": 5364,
      "58": 5365,
      "Ġantibiot": 5366,
      "Ġgovernments": 5367,
      "Ġrepresents": 5368,
      "ĠQue": 5369,
      "Ġfertil": 5370,
      "Ġshel": 5371,
      "Ġdial": 5372,
      "Ġtalking": 5373,
      "US": 5374,
      "ĠSen": 5375,
      "Ġbehaviour": 5376,
      "VID": 5377,
      "Dr": 5378,
      "Ġoutcomes": 5379,
      "Ġremained": 5380,
      "Ġmanufacturing": 5381,
      "utive": 5382,
      "Ġcouple": 5383,
      "Ġelev": 5384,
      "anch": 5385,
      "ĠStand": 5386,
      "Ġfle": 5387,
      "ĠEngine": 5388,
      "fall": 5389,
      "Ġlaun": 5390,
      "ĠCD": 5391,
      "Ġwildlife": 5392,
      "ĠOut": 5393,
      "ooth": 5394,
      "Ġrub": 5395,
      "Ġofficials": 5396,
      "leg": 5397,
      "ĠSecond": 5398,
      "Ġclosely": 5399,
      "Ġrecognized": 5400,
      "82": 5401,
      "Ġexistence": 5402,
      "Ġsuggested": 5403,
      "olester": 5404,
      "77": 5405,
      "ĠMet": 5406,
      "Ġsed": 5407,
      "Ġemployees": 5408,
      "hips": 5409,
      "ĠArab": 5410,
      "itness": 5411,
      "ĠSam": 5412,
      "Ġod": 5413,
      "Ġcreative": 5414,
      "Ġapproaches": 5415,
      "ĠInstead": 5416,
      "Ġprevention": 5417,
      "ĠBi": 5418,
      "Ġstock": 5419,
      "Ġwarming": 5420,
      "Ġauthority": 5421,
      "Ġsimpl": 5422,
      "Ġsteel": 5423,
      "Ġprepare": 5424,
      "Ġworldwide": 5425,
      "Ġfif": 5426,
      "73": 5427,
      "Ġappearance": 5428,
      "Ġsick": 5429,
      "Ġmedium": 5430,
      "Ġlib": 5431,
      "ĠRet": 5432,
      "Ġrecovery": 5433,
      "Ġmoon": 5434,
      "ĠBC": 5435,
      "iest": 5436,
      "Ġdisapp": 5437,
      "ulin": 5438,
      "Ġlandscape": 5439,
      "inations": 5440,
      "Ġsides": 5441,
      "Ġrecognize": 5442,
      "ville": 5443,
      "Ġcars": 5444,
      "ĠFranc": 5445,
      "orith": 5446,
      "Ġfollows": 5447,
      "Ġhunt": 5448,
      "ava": 5449,
      "ĠBible": 5450,
      "78": 5451,
      "agers": 5452,
      "Ġconcerned": 5453,
      "mas": 5454,
      "Ġsensitive": 5455,
      "olesterol": 5456,
      "ĠFurther": 5457,
      "Ġraise": 5458,
      "ĠEv": 5459,
      "BC": 5460,
      "zy": 5461,
      "Us": 5462,
      "Ġintake": 5463,
      "59": 5464,
      "ĠTwo": 5465,
      "inant": 5466,
      "-old": 5467,
      "Ġrail": 5468,
      "Ġsecure": 5469,
      "Ġmassive": 5470,
      "Ġminimum": 5471,
      "ION": 5472,
      "Ġmedication": 5473,
      "Ġrequest": 5474,
      "Ġvehicles": 5475,
      "ĠLife": 5476,
      "ĠThomas": 5477,
      "rian": 5478,
      "Ġextract": 5479,
      "Ġchann": 5480,
      "omach": 5481,
      "Ġharmful": 5482,
      "Ġagriculture": 5483,
      "Ġhorse": 5484,
      "Ġleaving": 5485,
      "Ġinjuries": 5486,
      "During": 5487,
      "Ġtiny": 5488,
      "Ġtitle": 5489,
      "Ġfirm": 5490,
      "ario": 5491,
      "agues": 5492,
      "ffee": 5493,
      "stood": 5494,
      "Ġrein": 5495,
      "Ġgall": 5496,
      "Ġtraffic": 5497,
      "Ġstarts": 5498,
      "ĠMass": 5499,
      "Ġnormally": 5500,
      "Ġvalid": 5501,
      "Ind": 5502,
      "Ġtouch": 5503,
      "Ġnan": 5504,
      "ĠInformation": 5505,
      "Ġfr": 5506,
      "roc": 5507,
      "ari": 5508,
      "Ġsets": 5509,
      "ndom": 5510,
      "Ġdoctors": 5511,
      "Ġband": 5512,
      "Ġinterview": 5513,
      "osc": 5514,
      "ĠCarol": 5515,
      "Ġdiversity": 5516,
      "ĠWomen": 5517,
      "ĠSea": 5518,
      "Ġimproving": 5519,
      "west": 5520,
      "oul": 5521,
      "Ġsports": 5522,
      "79": 5523,
      "Ġportion": 5524,
      "anes": 5525,
      "Ġaccompl": 5526,
      "asive": 5527,
      "cules": 5528,
      "ctic": 5529,
      "Ġble": 5530,
      "Ġregul": 5531,
      "ĠCommission": 5532,
      "ĠTreat": 5533,
      "Ġprocedures": 5534,
      "lam": 5535,
      "Ġdiverse": 5536,
      "Ġsubstant": 5537,
      "Ġsubstance": 5538,
      "Ġstages": 5539,
      "Ġdocuments": 5540,
      "ĠControl": 5541,
      "Ġstick": 5542,
      "Ġgenerate": 5543,
      "Ġroutine": 5544,
      "erals": 5545,
      "ĠMiddle": 5546,
      "ĠSaf": 5547,
      "ĠMil": 5548,
      "obe": 5549,
      "ĠFam": 5550,
      "Ġpictures": 5551,
      "ĠMr": 5552,
      "Ġfill": 5553,
      "cest": 5554,
      "Ġproducing": 5555,
      "74": 5556,
      "Ġmamm": 5557,
      "Ġselected": 5558,
      "83": 5559,
      "ĠBook": 5560,
      "Ġfunding": 5561,
      "ND": 5562,
      "abric": 5563,
      "ĠAnother": 5564,
      "ĠFre": 5565,
      "Ġwife": 5566,
      "Ġsatis": 5567,
      "Ġmovements": 5568,
      "Ġdomestic": 5569,
      "ibl": 5570,
      "Ġbattery": 5571,
      "ael": 5572,
      "Ġdownload": 5573,
      "Ġconcentration": 5574,
      "Ġforests": 5575,
      "Ġanswers": 5576,
      "iled": 5577,
      "MS": 5578,
      "Ġdust": 5579,
      "atever": 5580,
      "ĠNor": 5581,
      "Ġphr": 5582,
      "ania": 5583,
      "Ġleaf": 5584,
      "asure": 5585,
      "Ġadvoc": 5586,
      "ĠWild": 5587,
      "ĠLand": 5588,
      "rid": 5589,
      "Ġpretty": 5590,
      "ĠLike": 5591,
      "ĠEnvironmental": 5592,
      "olve": 5593,
      "Ġtried": 5594,
      "Ġintelligence": 5595,
      "Ġsolve": 5596,
      "Ġreaders": 5597,
      "Ġtrial": 5598,
      "Ġlabel": 5599,
      "Ġworse": 5600,
      "ĠÃ": 5601,
      "Ġchain": 5602,
      "Ġargument": 5603,
      "Ġcomprehensive": 5604,
      "Ġplays": 5605,
      "Ġminim": 5606,
      "Ġera": 5607,
      "Ġproport": 5608,
      "Ġapart": 5609,
      "Ġsubsequ": 5610,
      "Ġtun": 5611,
      "Ġlibrary": 5612,
      "faces": 5613,
      "HO": 5614,
      "TS": 5615,
      "Ġviews": 5616,
      "Ġdatabase": 5617,
      "vironments": 5618,
      "ĠKore": 5619,
      "Ġdescribes": 5620,
      "Ġprofessionals": 5621,
      "Ġinterests": 5622,
      "-day": 5623,
      "69": 5624,
      "Other": 5625,
      "ING": 5626,
      "Ġnurs": 5627,
      "ropical": 5628,
      "Ġstored": 5629,
      "time": 5630,
      "Ġsurvive": 5631,
      "Ġguidelines": 5632,
      "Ġarmy": 5633,
      "Ġcapable": 5634,
      "eck": 5635,
      "ĠBur": 5636,
      "lements": 5637,
      "Ġlots": 5638,
      "Ġcourses": 5639,
      "Ġchoices": 5640,
      "Ġprem": 5641,
      "Ġapparent": 5642,
      "Ġcreates": 5643,
      "Read": 5644,
      "ditionally": 5645,
      "Ġnetworks": 5646,
      "ĠUp": 5647,
      "Ġsin": 5648,
      "ĠLibrary": 5649,
      "burg": 5650,
      "Ġreturned": 5651,
      "ĠArmy": 5652,
      "ĠFlorida": 5653,
      "ota": 5654,
      "acts": 5655,
      "raction": 5656,
      "Ġmarine": 5657,
      "ĠGet": 5658,
      "Ġrecip": 5659,
      "ĠPower": 5660,
      "-sh": 5661,
      "ĠProfessor": 5662,
      "Ġchart": 5663,
      "Ġsud": 5664,
      "stream": 5665,
      "Ġtrad": 5666,
      "Ġdecline": 5667,
      "Ġbeneficial": 5668,
      "-se": 5669,
      "Ġstudying": 5670,
      "Ġsan": 5671,
      "Ġcatch": 5672,
      "Ġ*": 5673,
      "Ġchildhood": 5674,
      "Ġdistingu": 5675,
      "oto": 5676,
      "earchers": 5677,
      "Ġsweet": 5678,
      "Ġcolour": 5679,
      "ums": 5680,
      "rants": 5681,
      "Ã¡": 5682,
      "Ġlisted": 5683,
      "oral": 5684,
      "Ġprecise": 5685,
      "Ġflight": 5686,
      "DF": 5687,
      "hi": 5688,
      "Ġpaid": 5689,
      "ĠDisc": 5690,
      "Ġunlike": 5691,
      "Ġmuseum": 5692,
      "Ġcloud": 5693,
      "Ġrandom": 5694,
      "Ġoriginally": 5695,
      "comp": 5696,
      "Ġsuitable": 5697,
      "Ġspeaking": 5698,
      "Ġengage": 5699,
      "Ġaqu": 5700,
      "Ġaccomp": 5701,
      "Ġalt": 5702,
      "ĠRussia": 5703,
      "Ġdu": 5704,
      "Ġsky": 5705,
      "ĠRef": 5706,
      "ĠSte": 5707,
      "Ġappeared": 5708,
      "Ġnarrow": 5709,
      "imer": 5710,
      "Ġpoet": 5711,
      "asp": 5712,
      "Ġweap": 5713,
      "Ġexperiments": 5714,
      "Ġsurvival": 5715,
      "ĠMont": 5716,
      "Ġdream": 5717,
      "Ġmyth": 5718,
      "ypes": 5719,
      "Ġwindow": 5720,
      "âĢľThe": 5721,
      "ĠMuslim": 5722,
      "Ġsod": 5723,
      "Sc": 5724,
      "Stud": 5725,
      "lar": 5726,
      "Ġadequ": 5727,
      "Ġgather": 5728,
      "Ġdecade": 5729,
      "uilding": 5730,
      "Ġinject": 5731,
      "field": 5732,
      "Ġincl": 5733,
      "Ġsecondary": 5734,
      "merican": 5735,
      "Ġdiscussed": 5736,
      "Ġwaves": 5737,
      "Ġfacilit": 5738,
      "Ġmit": 5739,
      "Ġsudden": 5740,
      "Ġclaims": 5741,
      "ĠScient": 5742,
      "ĠSupp": 5743,
      "ona": 5744,
      "ĠKnow": 5745,
      "Ġgal": 5746,
      "Ġjourney": 5747,
      "ĠTem": 5748,
      "ĠExpl": 5749,
      "exp": 5750,
      "Ġwave": 5751,
      "Ġneighb": 5752,
      "CS": 5753,
      "riting": 5754,
      "Ġpolice": 5755,
      "olf": 5756,
      "Ġcalls": 5757,
      "Ġtwice": 5758,
      "Ġtail": 5759,
      "-time": 5760,
      "Ġcontem": 5761,
      "idden": 5762,
      "Ġkit": 5763,
      "Ġfigures": 5764,
      "ĠMicro": 5765,
      "-sc": 5766,
      "Ġmountain": 5767,
      "ibilities": 5768,
      "Ġconsid": 5769,
      "Ġstomach": 5770,
      "Ġtal": 5771,
      "Ġlifestyle": 5772,
      "ĠCam": 5773,
      "Ġjustice": 5774,
      "ĠRobert": 5775,
      "Ġnarr": 5776,
      "ato": 5777,
      "Ġmicrob": 5778,
      "Ġknew": 5779,
      "Ġtow": 5780,
      "aser": 5781,
      "ĠWell": 5782,
      "itors": 5783,
      "Ġalgorith": 5784,
      "rus": 5785,
      "/s": 5786,
      "hma": 5787,
      "Ġfiber": 5788,
      "Ġinsects": 5789,
      "Ġexchange": 5790,
      "Ġchapter": 5791,
      "Ġremote": 5792,
      "ĠRussian": 5793,
      "Ġelectronic": 5794,
      "band": 5795,
      "Ġenvironments": 5796,
      "Ġobtained": 5797,
      "ĠAI": 5798,
      "Ġtransition": 5799,
      "Ġbreathing": 5800,
      "Ġleadership": 5801,
      "ĠEmp": 5802,
      "Ġfossil": 5803,
      "Ġcircumst": 5804,
      "Ġimpossible": 5805,
      "ĠPost": 5806,
      "Ġpossibly": 5807,
      "Ġclosed": 5808,
      "Ġmere": 5809,
      "osal": 5810,
      "Ġbiggest": 5811,
      "Ġskill": 5812,
      "ĠManagement": 5813,
      "othe": 5814,
      "ĠVirginia": 5815,
      "Ġproduces": 5816,
      "inder": 5817,
      "Ġflav": 5818,
      "Ġcorpor": 5819,
      "Ġdent": 5820,
      "Ġwants": 5821,
      "Ġentirely": 5822,
      "ĠSum": 5823,
      "that": 5824,
      "ifies": 5825,
      "Ġedge": 5826,
      "Ġpull": 5827,
      "Ġslowly": 5828,
      "Ġassemb": 5829,
      "Ġrevealed": 5830,
      "Ġtells": 5831,
      "ĠHam": 5832,
      "Ġbudget": 5833,
      "Gen": 5834,
      "Ġafford": 5835,
      "ĠAbout": 5836,
      "Äģ": 5837,
      "ester": 5838,
      "Ġprinciple": 5839,
      "mary": 5840,
      "Ġmolecules": 5841,
      "Ġrespir": 5842,
      "tage": 5843,
      "inating": 5844,
      "normal": 5845,
      "Ġparam": 5846,
      "Ġmaintenance": 5847,
      "gl": 5848,
      "Ġformal": 5849,
      "Ġcholesterol": 5850,
      "Ġreform": 5851,
      "Ġindex": 5852,
      "eer": 5853,
      "Ġenable": 5854,
      "Ġacceler": 5855,
      "ĠMem": 5856,
      "Ġtoler": 5857,
      "Ġaer": 5858,
      "Ġchief": 5859,
      "ĠBet": 5860,
      "Ġsupplement": 5861,
      "Ġhappy": 5862,
      "ĠDisease": 5863,
      "ĠJud": 5864,
      "down": 5865,
      "ĠNav": 5866,
      "Ġwalking": 5867,
      "Ġconsumers": 5868,
      "racy": 5869,
      "abul": 5870,
      "attle": 5871,
      "Ġtro": 5872,
      "My": 5873,
      "ĠInf": 5874,
      "Ġpray": 5875,
      "Since": 5876,
      "Ġtraum": 5877,
      "Ġpure": 5878,
      "ĠNature": 5879,
      "Ġseeing": 5880,
      "ĠDel": 5881,
      "alse": 5882,
      "Ġgenerated": 5883,
      "Ġapprec": 5884,
      "Ġemotions": 5885,
      "Ġpref": 5886,
      "rors": 5887,
      "Ġdecide": 5888,
      "Ġpapers": 5889,
      "Ġcalcium": 5890,
      "Ġfasc": 5891,
      "Ġdiscrim": 5892,
      "inet": 5893,
      "oric": 5894,
      "ĠBudd": 5895,
      "irus": 5896,
      "-cent": 5897,
      "Ġachieved": 5898,
      "Ġabsolute": 5899,
      "Ġ>": 5900,
      "lets": 5901,
      "Ġsuccessfully": 5902,
      "ĠStudies": 5903,
      "Ġgun": 5904,
      "Ġsoldiers": 5905,
      "Ġlocations": 5906,
      "Ġwors": 5907,
      "ĠLabor": 5908,
      "Ġancest": 5909,
      "Ġnerve": 5910,
      "ĠLouis": 5911,
      "Ġfoundation": 5912,
      "Ġhabits": 5913,
      "Ġaw": 5914,
      "ĠCatholic": 5915,
      "-be": 5916,
      "prise": 5917,
      "Ġplate": 5918,
      "Ġhandle": 5919,
      "Ġmonitor": 5920,
      "Ġraw": 5921,
      "ĠThrough": 5922,
      "Ġsignals": 5923,
      "ĠCommon": 5924,
      "ston": 5925,
      "Ġaccounts": 5926,
      "Ġdistrict": 5927,
      "ĠEconom": 5928,
      "Ġcultiv": 5929,
      "Ġcandid": 5930,
      "ĠPC": 5931,
      "Ġcorrespond": 5932,
      "Ġregional": 5933,
      "Ġdut": 5934,
      "ĠCare": 5935,
      "ashion": 5936,
      "Ġhttps": 5937,
      "ellect": 5938,
      "Ġfly": 5939,
      "Not": 5940,
      "-P": 5941,
      "Ġacids": 5942,
      "Ġfilled": 5943,
      "Ġconscious": 5944,
      "Ġgrav": 5945,
      "oviet": 5946,
      "ivalent": 5947,
      "Ġbio": 5948,
      "uzz": 5949,
      "ups": 5950,
      "alysis": 5951,
      "Ġcart": 5952,
      "Ġadopted": 5953,
      "Ġprogramming": 5954,
      "Ġcolleagues": 5955,
      "ĠJose": 5956,
      "ĠCOVID": 5957,
      "Ġmild": 5958,
      "Ġcoffee": 5959,
      "rag": 5960,
      "Ġvillage": 5961,
      "Ġcutting": 5962,
      "Ġoptim": 5963,
      "using": 5964,
      "organ": 5965,
      "hemical": 5966,
      "uke": 5967,
      "Ġstated": 5968,
      "ĠAny": 5969,
      "Ġuniverse": 5970,
      "Ġselection": 5971,
      "Ġprison": 5972,
      "Ġhouses": 5973,
      "Ġbroken": 5974,
      "cel": 5975,
      "Ġstimul": 5976,
      "eper": 5977,
      "Ġcommunicate": 5978,
      "Ġshell": 5979,
      "rem": 5980,
      "ĠColumb": 5981,
      "ht": 5982,
      "Ġsell": 5983,
      "orter": 5984,
      "Ġabund": 5985,
      "Ġtruly": 5986,
      "Ġmachines": 5987,
      "Ġaf": 5988,
      "ĠKen": 5989,
      "ada": 5990,
      "Ġflo": 5991,
      "Ġvessels": 5992,
      "Ġsmoking": 5993,
      "Ġopened": 5994,
      "ĠThose": 5995,
      "Re": 5996,
      "ĠGood": 5997,
      "Ġrestrict": 5998,
      "ĠLab": 5999,
      "Ġreader": 6000,
      "Ġdiscipl": 6001,
      "Ġ...": 6002,
      "ĠCharles": 6003,
      "Ġvoc": 6004,
      "ĠSl": 6005,
      "Ġsentence": 6006,
      "point": 6007,
      "anged": 6008,
      "âĢĻd": 6009,
      "ĠDesign": 6010,
      "Ġpersons": 6011,
      "Ġacts": 6012,
      "Ġaudience": 6013,
      "Ġunderstood": 6014,
      "inking": 6015,
      "Ġspiritual": 6016,
      "Ġarms": 6017,
      "icit": 6018,
      "izer": 6019,
      "ĠAp": 6020,
      "Ġmarriage": 6021,
      "Ġneuro": 6022,
      "Ġ.Ċ": 6023,
      "Ġunknown": 6024,
      "gans": 6025,
      "Ġfewer": 6026,
      "\"Ċ": 6027,
      "Ġdensity": 6028,
      "Ġbear": 6029,
      "ĠHenry": 6030,
      "ĠSuch": 6031,
      "Ġopening": 6032,
      "Ġdin": 6033,
      "ĠSmith": 6034,
      "ĠRights": 6035,
      "ĠMo": 6036,
      "Ġdedicated": 6037,
      "Ġmac": 6038,
      "Ġpossibility": 6039,
      "Ġobesity": 6040,
      "Ġrecon": 6041,
      "zen": 6042,
      "icians": 6043,
      "ka": 6044,
      "flow": 6045,
      "azing": 6046,
      "Ġdioxide": 6047,
      "osph": 6048,
      "En": 6049,
      "Ġcarefully": 6050,
      "ogue": 6051,
      "Ġcloser": 6052,
      "Ġfabric": 6053,
      "Ġcats": 6054,
      "-the": 6055,
      "Ġstruggle": 6056,
      "ĠOcean": 6057,
      "Ġcultures": 6058,
      "ny": 6059,
      "Ġnoise": 6060,
      "Ġagencies": 6061,
      "oster": 6062,
      "ĠTer": 6063,
      "Ġtea": 6064,
      "Ġtransmission": 6065,
      "Ġframework": 6066,
      "Ġcircuit": 6067,
      "Ġdepos": 6068,
      "Ġaccepted": 6069,
      "Ġpermanent": 6070,
      "Ġrepeated": 6071,
      "Ġgreenhouse": 6072,
      "fortunately": 6073,
      "Ġthor": 6074,
      "Ġdiagnosed": 6075,
      "Ġax": 6076,
      "Ġelectron": 6077,
      "Ġunless": 6078,
      "Ġpup": 6079,
      "Ġcontamin": 6080,
      "Ġmoral": 6081,
      "Ġcomposition": 6082,
      "Ġremaining": 6083,
      "Ġaircraft": 6084,
      "Ġsuc": 6085,
      "Ġroof": 6086,
      "Ġoutl": 6087,
      "ivery": 6088,
      "orrow": 6089,
      "pat": 6090,
      "Ġassistance": 6091,
      "CT": 6092,
      "Ġopinion": 6093,
      "Ġgreatly": 6094,
      "Ġbehaviors": 6095,
      "ĠAustralian": 6096,
      "Ġamb": 6097,
      "add": 6098,
      "ĠProv": 6099,
      "LE": 6100,
      "Ġyounger": 6101,
      "Ġath": 6102,
      "Ġultimately": 6103,
      "Ġlisten": 6104,
      "ictionary": 6105,
      "Ġwid": 6106,
      "ĠCanadian": 6107,
      "ocratic": 6108,
      "Ġconcrete": 6109,
      "Ġlaboratory": 6110,
      "mic": 6111,
      "alian": 6112,
      "-of": 6113,
      "Ġscholars": 6114,
      "Ġextended": 6115,
      "Ġpossess": 6116,
      "Ġdoor": 6117,
      "ĠNations": 6118,
      "De": 6119,
      "ribe": 6120,
      "ipping": 6121,
      "Ġlands": 6122,
      "Ġteen": 6123,
      "ĠOffice": 6124,
      "Ġdifficulty": 6125,
      "Ġunus": 6126,
      "Ġsharing": 6127,
      "Ġopposite": 6128,
      "Lear": 6129,
      "Can": 6130,
      "cript": 6131,
      "Ġmanaged": 6132,
      "Ġlegs": 6133,
      "erent": 6134,
      "Ġdrawing": 6135,
      "Ġmagnetic": 6136,
      "Ġvulnerable": 6137,
      "luding": 6138,
      "ritis": 6139,
      "struct": 6140,
      "UR": 6141,
      "Ġcamera": 6142,
      "Ġtaste": 6143,
      "Ġtall": 6144,
      "reed": 6145,
      "Ġparties": 6146,
      "Ġobl": 6147,
      "gra": 6148,
      "Ġuniversity": 6149,
      "gent": 6150,
      "Ġcarb": 6151,
      "aria": 6152,
      "Ġbrand": 6153,
      "ĠAtt": 6154,
      "ĠFederal": 6155,
      "Ġnine": 6156,
      "ansion": 6157,
      "Ġfract": 6158,
      "Pe": 6159,
      "net": 6160,
      "word": 6161,
      "ctive": 6162,
      "Ġphotograph": 6163,
      "rating": 6164,
      "Ġartificial": 6165,
      "ĠSoviet": 6166,
      "âĢĻ,": 6167,
      "Ġconventional": 6168,
      "ĠFe": 6169,
      "ĠGroup": 6170,
      "Ġsupports": 6171,
      "Ġimper": 6172,
      "ĠCompany": 6173,
      "Ġpron": 6174,
      "Ġunp": 6175,
      "bert": 6176,
      "Ġobtain": 6177,
      "Ġerror": 6178,
      "Ġfever": 6179,
      "ĠKeep": 6180,
      "Ġwriter": 6181,
      "Ġpurchase": 6182,
      "Ġshift": 6183,
      "Ġneck": 6184,
      ".âĢĻ": 6185,
      "Ġsight": 6186,
      "ĠSouthern": 6187,
      "Ġfeeding": 6188,
      "uts": 6189,
      "ĠId": 6190,
      "umes": 6191,
      "Ġsupporting": 6192,
      "arant": 6193,
      "aped": 6194,
      "ĠGlobal": 6195,
      "Ġhero": 6196,
      "Ġderived": 6197,
      "ĠHaw": 6198,
      "Ġconsistent": 6199,
      "Ġgluc": 6200,
      "ribed": 6201,
      "Ġneighbor": 6202,
      "ĠSk": 6203,
      "iform": 6204,
      "Ġmulti": 6205,
      "then": 6206,
      "Your": 6207,
      "Ġsmoke": 6208,
      "-free": 6209,
      "Ġfell": 6210,
      "Ġindicates": 6211,
      "ĠBro": 6212,
      "ĠAlex": 6213,
      "icide": 6214,
      "ĠPsych": 6215,
      "under": 6216,
      "nam": 6217,
      "ĠLeg": 6218,
      "Ġinner": 6219,
      "âĢĺ": 6220,
      "-on": 6221,
      "ints": 6222,
      "Ġpersist": 6223,
      "Ġcompounds": 6224,
      "Ġmarked": 6225,
      "-H": 6226,
      "Ġ<": 6227,
      "Ġarchitecture": 6228,
      "ait": 6229,
      "Ġsequence": 6230,
      "ĠâĢ¢": 6231,
      "Ġrelax": 6232,
      "Ġrid": 6233,
      "Ġadministration": 6234,
      "hether": 6235,
      "Ġmixed": 6236,
      "Ġunderlying": 6237,
      "throp": 6238,
      "ĠEss": 6239,
      "Ġwish": 6240,
      "Let": 6241,
      "Ġstands": 6242,
      "wo": 6243,
      "ĠIP": 6244,
      "Ġhydrogen": 6245,
      "Ġdescription": 6246,
      "orld": 6247,
      "Ġyield": 6248,
      "Ġtransportation": 6249,
      "Ġmechanism": 6250,
      "Ġregulations": 6251,
      "ĠYet": 6252,
      "Ġlayers": 6253,
      "anda": 6254,
      "Ġserver": 6255,
      "EP": 6256,
      "Ġimmediate": 6257,
      "icon": 6258,
      "phone": 6259,
      "Ġveter": 6260,
      "riers": 6261,
      "kes": 6262,
      "Ġturns": 6263,
      "Ġaccident": 6264,
      "ĠGold": 6265,
      "Ġcalories": 6266,
      "sis": 6267,
      "Ġrow": 6268,
      "ĠAdd": 6269,
      "ĠNatural": 6270,
      "Ġinstructions": 6271,
      "ĠVict": 6272,
      "Ġepid": 6273,
      "Ġattend": 6274,
      "Ġdebate": 6275,
      "oted": 6276,
      "-F": 6277,
      "ĠIll": 6278,
      "Ġintervention": 6279,
      "Ġunable": 6280,
      "Ġsupplies": 6281,
      "irds": 6282,
      "Ġreplaced": 6283,
      "Ġinteraction": 6284,
      "Ġratio": 6285,
      "Ġrising": 6286,
      "Ġpool": 6287,
      "heast": 6288,
      "Ġsubstances": 6289,
      "Cont": 6290,
      "Ġprol": 6291,
      "ĠParis": 6292,
      "ĠTHE": 6293,
      "itter": 6294,
      "Ġorganisms": 6295,
      "Ġcircumstances": 6296,
      "Ġpresentation": 6297,
      "Ġagency": 6298,
      "Ġbabies": 6299,
      "Ġpreval": 6300,
      "ĠOnly": 6301,
      "Ġorganized": 6302,
      "inction": 6303,
      "Ġworkshe": 6304,
      "ena": 6305,
      "orous": 6306,
      "itudes": 6307,
      "ÃŃ": 6308,
      "Ġcm": 6309,
      "ey": 6310,
      "Ġaccum": 6311,
      "Ġfilter": 6312,
      "ua": 6313,
      "uation": 6314,
      "Ġeveryday": 6315,
      "ĠTor": 6316,
      "Ġoutbre": 6317,
      "Ġvirtual": 6318,
      "Ġreserv": 6319,
      "ĠVis": 6320,
      "Ġnewsp": 6321,
      "Ġmedic": 6322,
      "ĠExt": 6323,
      "Ġcustomers": 6324,
      "Ġtank": 6325,
      "Ġattached": 6326,
      "Ġjoin": 6327,
      "Ġswim": 6328,
      "Ġzero": 6329,
      "zed": 6330,
      "ifications": 6331,
      "ĠForest": 6332,
      "Ġfixed": 6333,
      "Ġresponses": 6334,
      "fish": 6335,
      "Ġholid": 6336,
      "Ġpercentage": 6337,
      "Ġbot": 6338,
      "Ġinsurance": 6339,
      "ĠHome": 6340,
      "Ġexercises": 6341,
      "liam": 6342,
      "Ġoverl": 6343,
      "Ġhousing": 6344,
      "urd": 6345,
      "Ġrhy": 6346,
      "Ġstroke": 6347,
      "ĠConstitution": 6348,
      "Ġnecessarily": 6349,
      "LA": 6350,
      "ĠDiv": 6351,
      "Ġnearby": 6352,
      "opl": 6353,
      "ĠBre": 6354,
      "ĠOF": 6355,
      "weight": 6356,
      "ini": 6357,
      "Ġremark": 6358,
      "Ġpainting": 6359,
      "Ġagreement": 6360,
      "Ġbreath": 6361,
      "Ġperce": 6362,
      "ĠFrank": 6363,
      "Ġtex": 6364,
      "Ġfailed": 6365,
      "Bl": 6366,
      "Ġahead": 6367,
      "Ġchallenging": 6368,
      "Over": 6369,
      "Ġconfidence": 6370,
      "ĠColor": 6371,
      "Ġends": 6372,
      "Ġpoison": 6373,
      "Ġimplementation": 6374,
      "Ġmos": 6375,
      "Ġpsychological": 6376,
      "Ġexamine": 6377,
      "ella": 6378,
      "Ġinhab": 6379,
      "Ġchosen": 6380,
      "Ġcos": 6381,
      "Ġgone": 6382,
      "ĠValley": 6383,
      "ĠUSA": 6384,
      "Ġfeedback": 6385,
      "rite": 6386,
      "Ġreactions": 6387,
      "Ġshop": 6388,
      "Ġgrew": 6389,
      "hop": 6390,
      "Ġwww": 6391,
      "Ġethnic": 6392,
      "ymph": 6393,
      "Ġourselves": 6394,
      "Ġparticipate": 6395,
      "ĠScot": 6396,
      "ventions": 6397,
      "Ġconnections": 6398,
      "Ġstanding": 6399,
      "Ġlimits": 6400,
      "uter": 6401,
      "from": 6402,
      "zil": 6403,
      "Ġminerals": 6404,
      "Ġtrained": 6405,
      "orses": 6406,
      "Int": 6407,
      "Ġsheet": 6408,
      "reland": 6409,
      "agon": 6410,
      "Ġnest": 6411,
      "ĠStreet": 6412,
      "Ġeld": 6413,
      "ĠOh": 6414,
      "Ġcovers": 6415,
      "Ġchick": 6416,
      "ĠCancer": 6417,
      "elesc": 6418,
      "Ġbread": 6419,
      "Ġment": 6420,
      "Ġeastern": 6421,
      "ĠRad": 6422,
      ".|Ċ": 6423,
      "yles": 6424,
      "Ġmaps": 6425,
      "Ġmeters": 6426,
      "Ġlies": 6427,
      "Ġacknow": 6428,
      "ĠAdminist": 6429,
      "Ġimprovement": 6430,
      "Ġintellect": 6431,
      "Ġprompt": 6432,
      "Ġwasn": 6433,
      "Ġstring": 6434,
      "Ġinstruments": 6435,
      "ĠForm": 6436,
      "Ġwitness": 6437,
      "Ġputting": 6438,
      "Ġregist": 6439,
      "Ġcomparison": 6440,
      "Ġgap": 6441,
      "Ġborder": 6442,
      "umps": 6443,
      "ĠLong": 6444,
      "Ġbutter": 6445,
      "Ġinstitution": 6446,
      "Ġscan": 6447,
      "Ġplayers": 6448,
      "irt": 6449,
      "Ġexists": 6450,
      "Ġexpressed": 6451,
      "Ġequivalent": 6452,
      "amins": 6453,
      "Ġtissues": 6454,
      "ĠStep": 6455,
      "inity": 6456,
      "Ġpair": 6457,
      "Ġfrequent": 6458,
      "Ġauthorities": 6459,
      "Ġfounded": 6460,
      "roduction": 6461,
      "yth": 6462,
      "ĠSciences": 6463,
      "Ġmaintaining": 6464,
      "Ġhoriz": 6465,
      "asters": 6466,
      "quit": 6467,
      "Ġgenerations": 6468,
      "Ġkidney": 6469,
      "ocracy": 6470,
      "Ġconsumer": 6471,
      "ĠExper": 6472,
      "-pro": 6473,
      "Ġknows": 6474,
      "Ġmining": 6475,
      "dule": 6476,
      "Ġvariable": 6477,
      "icious": 6478,
      "stone": 6479,
      "Ġclust": 6480,
      "uels": 6481,
      "oned": 6482,
      "liament": 6483,
      "Ġstable": 6484,
      "win": 6485,
      "Ġprincip": 6486,
      "abulary": 6487,
      "Ġdepartment": 6488,
      "Ġrenewable": 6489,
      "ĠCarolina": 6490,
      "ĠChic": 6491,
      "Ġprotocol": 6492,
      "Ġshut": 6493,
      "Ġfold": 6494,
      "ĠHall": 6495,
      "Ġlaunched": 6496,
      "Ġorgans": 6497,
      "Ġcapture": 6498,
      "Ġfighting": 6499,
      "Ġdrain": 6500,
      "Se": 6501,
      "state": 6502,
      "Ġhole": 6503,
      "Ġmeal": 6504,
      "-level": 6505,
      "ĠMad": 6506,
      "Ġspaces": 6507,
      "Ġarrived": 6508,
      "Ġhem": 6509,
      "ĠIN": 6510,
      "ĠPers": 6511,
      "Ġspending": 6512,
      "Ġzone": 6513,
      "Ġdistur": 6514,
      "ĠNorthern": 6515,
      "Ġindeed": 6516,
      "Ġdestroyed": 6517,
      "anta": 6518,
      "ĠOx": 6519,
      "Ġmice": 6520,
      "Ġlatter": 6521,
      "ĠCy": 6522,
      "ĠDan": 6523,
      "itative": 6524,
      "rooms": 6525,
      "Ġcards": 6526,
      "Ġtract": 6527,
      "ĠDet": 6528,
      "Of": 6529,
      "Ġevaluation": 6530,
      "earing": 6531,
      "ĠAcademy": 6532,
      "Ġflag": 6533,
      "âĢĿ.Ċ": 6534,
      "ĠClimate": 6535,
      "Ġdefine": 6536,
      "pread": 6537,
      "Ġlect": 6538,
      "thritis": 6539,
      "IP": 6540,
      "hist": 6541,
      "Ġmoisture": 6542,
      "SS": 6543,
      "ĠTake": 6544,
      "ults": 6545,
      "ĠIreland": 6546,
      "Ġcrow": 6547,
      "sey": 6548,
      "Ġrecognition": 6549,
      "elled": 6550,
      "Ġobservations": 6551,
      "Ġrivers": 6552,
      "Ġrepresented": 6553,
      "First": 6554,
      "Ġestimates": 6555,
      "ĠTime": 6556,
      "Ġthousand": 6557,
      "ĠGard": 6558,
      "ora": 6559,
      "Ġblocks": 6560,
      "Ġdoubt": 6561,
      "Ġsmooth": 6562,
      "Ġcompetition": 6563,
      "Ġdemonstrate": 6564,
      "atal": 6565,
      "abled": 6566,
      "ĠNative": 6567,
      "idespread": 6568,
      "osion": 6569,
      "oding": 6570,
      "Ġentry": 6571,
      "Ġindustries": 6572,
      "ĠHave": 6573,
      "Ġaccessible": 6574,
      "Ġcup": 6575,
      "cher": 6576,
      "Ġhus": 6577,
      "Ġdaughter": 6578,
      "tic": 6579,
      "ĠExp": 6580,
      "Ġdelivery": 6581,
      "Ġdamaged": 6582,
      "Ġphysics": 6583,
      "Ġmood": 6584,
      "ediatric": 6585,
      "opic": 6586,
      "kins": 6587,
      "rovers": 6588,
      "IL": 6589,
      "ca": 6590,
      "aked": 6591,
      "Ġforget": 6592,
      "Ġbiod": 6593,
      "ĠRome": 6594,
      "Ġcritic": 6595,
      "itamin": 6596,
      "Ġspok": 6597,
      "Ġrepair": 6598,
      "stein": 6599,
      "such": 6600,
      "-R": 6601,
      "abb": 6602,
      "Ġinstalled": 6603,
      "anches": 6604,
      "nee": 6605,
      "ĠReview": 6606,
      "Ġoperate": 6607,
      "irty": 6608,
      "Ġreduces": 6609,
      "Ġviruses": 6610,
      "stract": 6611,
      "Ġcontained": 6612,
      "Ġrice": 6613,
      "ĠRob": 6614,
      "ĠStudy": 6615,
      "BS": 6616,
      "Ġinterf": 6617,
      "Ġmarried": 6618,
      "Ġsettings": 6619,
      "Ġinsulin": 6620,
      "ita": 6621,
      "Ġmechanisms": 6622,
      "ĠRevolution": 6623,
      "body": 6624,
      "Ġcomments": 6625,
      "Ġphilosophy": 6626,
      "ĠAgricult": 6627,
      "Ġpregnant": 6628,
      "hered": 6629,
      "usiness": 6630,
      "Ġmembr": 6631,
      "Ġpartner": 6632,
      "Ġparalle": 6633,
      "See": 6634,
      "Ġworry": 6635,
      "CD": 6636,
      "Ġusage": 6637,
      "Ġcompare": 6638,
      "Ġburning": 6639,
      "Ġvolcan": 6640,
      "Ġreject": 6641,
      "ola": 6642,
      "olving": 6643,
      "ĠPenn": 6644,
      "Ġbrings": 6645,
      "rd": 6646,
      "ĠBank": 6647,
      "ĠCommit": 6648,
      "itely": 6649,
      "Even": 6650,
      "eless": 6651,
      "Ġoccasion": 6652,
      "ditional": 6653,
      "Ġinfect": 6654,
      "Ġprove": 6655,
      "Ġpounds": 6656,
      "Ġelectro": 6657,
      "Ġvoltage": 6658,
      "Ġindependence": 6659,
      "Once": 6660,
      "ading": 6661,
      "Ġearthqu": 6662,
      "Ġdesire": 6663,
      "hesis": 6664,
      "ĠFree": 6665,
      "but": 6666,
      "Ġnose": 6667,
      "Ġcrime": 6668,
      "ĠLanguage": 6669,
      "bra": 6670,
      "ĠPeter": 6671,
      "no": 6672,
      "Ġresulted": 6673,
      "Ġphoto": 6674,
      "urrent": 6675,
      "ĠDiff": 6676,
      "Ġped": 6677,
      "Ġsucceed": 6678,
      "Ġdelay": 6679,
      "struction": 6680,
      "ĠSpain": 6681,
      "ether": 6682,
      "Ġprev": 6683,
      "ĠItaly": 6684,
      "ighter": 6685,
      "Ġruns": 6686,
      "Ġessays": 6687,
      "Ġhistoric": 6688,
      "Ġtrials": 6689,
      "Ġjoined": 6690,
      "Ġguarant": 6691,
      "Ġplenty": 6692,
      "Ġarchae": 6693,
      "Ġaward": 6694,
      "Ġongoing": 6695,
      "Ġgram": 6696,
      "DP": 6697,
      "ĠEnd": 6698,
      "ĠSing": 6699,
      "Ġru": 6700,
      "Rec": 6701,
      "Ġtight": 6702,
      "ĠStat": 6703,
      "Ġcollaboration": 6704,
      "Ġreliable": 6705,
      "Ġbeliefs": 6706,
      "Ġtrip": 6707,
      "Ġinhib": 6708,
      "agram": 6709,
      "utch": 6710,
      "Ġchrom": 6711,
      "Ġartists": 6712,
      "Ġbridge": 6713,
      "isters": 6714,
      "Ġconclusion": 6715,
      "Ġingredients": 6716,
      "Ġfunctional": 6717,
      "Ġdebt": 6718,
      "usal": 6719,
      "Ġsubs": 6720,
      "Ġhun": 6721,
      "Ġcav": 6722,
      "Ġscene": 6723,
      "Ġobjective": 6724,
      "Ġwilling": 6725,
      "Ġterritory": 6726,
      ".m": 6727,
      "Ġwhereas": 6728,
      "nect": 6729,
      "Ġemployment": 6730,
      "ourage": 6731,
      "ĠPract": 6732,
      "Ġrefuge": 6733,
      "Ġmatch": 6734,
      "Ġpolitics": 6735,
      "urric": 6736,
      "ĠWood": 6737,
      "Ġholds": 6738,
      "Today": 6739,
      "Ġsurfaces": 6740,
      "ĠÎ": 6741,
      "teen": 6742,
      "Ġbond": 6743,
      "while": 6744,
      "een": 6745,
      "Ġsatellite": 6746,
      "ĠJoseph": 6747,
      "Ġvs": 6748,
      "Ġfashion": 6749,
      "Ġframe": 6750,
      "Ġvote": 6751,
      "Ġdanger": 6752,
      "Ġrig": 6753,
      "Ġwidespread": 6754,
      "Ġwhatever": 6755,
      "Ġshot": 6756,
      "Ġloved": 6757,
      "aine": 6758,
      "itting": 6759,
      "Ġmarkets": 6760,
      "Ġcategories": 6761,
      "ĠRoyal": 6762,
      "heimer": 6763,
      "Ġincred": 6764,
      "gers": 6765,
      "Ġinteractions": 6766,
      "Ġbath": 6767,
      "Every": 6768,
      "airy": 6769,
      "utrition": 6770,
      "ĠBig": 6771,
      "Ġships": 6772,
      "ML": 6773,
      "Ġrespiratory": 6774,
      "liest": 6775,
      "Ġfavorite": 6776,
      "ĠEmpire": 6777,
      "itivity": 6778,
      "Ġblow": 6779,
      "Ġinvolving": 6780,
      "ĠCa": 6781,
      "Ġshapes": 6782,
      "Ġasking": 6783,
      "Ġfro": 6784,
      "igned": 6785,
      "Ġconstantly": 6786,
      "rency": 6787,
      "Ġpreventing": 6788,
      "Ġscript": 6789,
      "gical": 6790,
      "Ġnervous": 6791,
      "Ġresolution": 6792,
      "ohyd": 6793,
      "Ġtub": 6794,
      "Ġglucose": 6795,
      "Ġintest": 6796,
      "Ġturning": 6797,
      "Ġtons": 6798,
      "itan": 6799,
      "roat": 6800,
      "pes": 6801,
      "health": 6802,
      "Ġhypothes": 6803,
      "ĠWorks": 6804,
      "yroid": 6805,
      "omer": 6806,
      "ĠGal": 6807,
      "Ġrocks": 6808,
      "Ġirrit": 6809,
      "idity": 6810,
      "Ġpand": 6811,
      "Ġfalse": 6812,
      "ĠGuide": 6813,
      "Ġconstitution": 6814,
      "ented": 6815,
      "Ġtube": 6816,
      "Ġfacing": 6817,
      "Ġmand": 6818,
      "Ġadministr": 6819,
      "Ġkilomet": 6820,
      "Ġrecept": 6821,
      "otton": 6822,
      "arn": 6823,
      "Ġneur": 6824,
      "Ġmm": 6825,
      "ĠWhere": 6826,
      "Ġroute": 6827,
      "Ġevaluate": 6828,
      "ethod": 6829,
      "ĠAS": 6830,
      "iox": 6831,
      "ĠWik": 6832,
      "Ġcentre": 6833,
      "-and": 6834,
      "Ġmechanical": 6835,
      "ĠScott": 6836,
      "Because": 6837,
      "Ġmissing": 6838,
      "Ġcryst": 6839,
      "Ġcleaning": 6840,
      "ittle": 6841,
      "ĠMill": 6842,
      "asty": 6843,
      "ĠCamp": 6844,
      "alls": 6845,
      "Ġdemonstrated": 6846,
      "Ġcoastal": 6847,
      "acco": 6848,
      "Ġrely": 6849,
      "ommon": 6850,
      "Ġintense": 6851,
      "ĠYear": 6852,
      "Ġsections": 6853,
      "Ġblind": 6854,
      "Ġsurve": 6855,
      "inally": 6856,
      "isk": 6857,
      "Ġpp": 6858,
      "ĠCult": 6859,
      "Ġalter": 6860,
      "erior": 6861,
      "Ġgut": 6862,
      "ushed": 6863,
      "Ġphotos": 6864,
      "ocy": 6865,
      "Ġsupposed": 6866,
      "ĠCheck": 6867,
      "Ġalle": 6868,
      "Ġaims": 6869,
      "ĠAnn": 6870,
      "Ġcomplicated": 6871,
      "Ġearn": 6872,
      "Ġartist": 6873,
      "Ġrecommendations": 6874,
      "Ġdys": 6875,
      "ployment": 6876,
      "born": 6877,
      "opes": 6878,
      "Ġfunds": 6879,
      "iological": 6880,
      "Ġtrouble": 6881,
      "ĠBoard": 6882,
      "Ġwait": 6883,
      "Ġjump": 6884,
      "Ġestimate": 6885,
      "ĠEU": 6886,
      "Ġfocuses": 6887,
      "eers": 6888,
      "ĠTeac": 6889,
      "ĠGeorg": 6890,
      "Ġadequate": 6891,
      "hav": 6892,
      "Ġboys": 6893,
      "Ġoffering": 6894,
      "Ġfacility": 6895,
      "Ġended": 6896,
      "Ġchest": 6897,
      "onia": 6898,
      "Ġfarming": 6899,
      "Ġvac": 6900,
      "Ġfer": 6901,
      "ĠDig": 6902,
      "Ġpharm": 6903,
      "rine": 6904,
      "Ġasthma": 6905,
      "Ġmeasurement": 6906,
      "Ġbrush": 6907,
      "idential": 6908,
      "Ġintegrated": 6909,
      "igan": 6910,
      "ĠSometimes": 6911,
      "Ġabnormal": 6912,
      "ĠGree": 6913,
      "Ġcounty": 6914,
      "Ġissued": 6915,
      "pet": 6916,
      "-E": 6917,
      "Ġmode": 6918,
      "Ġseconds": 6919,
      "everal": 6920,
      "war": 6921,
      "example": 6922,
      "Ġtut": 6923,
      "Ġmeasurements": 6924,
      "ĠReport": 6925,
      "ifest": 6926,
      "Ġexplo": 6927,
      "Ġcontrols": 6928,
      "-L": 6929,
      "Ġmales": 6930,
      "Ġadvantages": 6931,
      "Ġdesigns": 6932,
      "Ġexpansion": 6933,
      "ĠPan": 6934,
      "Ġov": 6935,
      "Ġannounced": 6936,
      "ĠEarly": 6937,
      "Ġcenters": 6938,
      "ĠChristmas": 6939,
      "iration": 6940,
      "Ġconversation": 6941,
      "Ġrelief": 6942,
      "Ġconven": 6943,
      "Ġmanip": 6944,
      "Ġbreeding": 6945,
      "Ġarts": 6946,
      "Ġtheme": 6947,
      "Qu": 6948,
      "Ġfemales": 6949,
      "Ġcooking": 6950,
      "ĠKh": 6951,
      "Ġclothing": 6952,
      "Â·": 6953,
      "ĠFace": 6954,
      "Ġhormone": 6955,
      "ĠMag": 6956,
      "Ġvarieties": 6957,
      "Ġtexts": 6958,
      "Ġtwenty": 6959,
      "Ġblo": 6960,
      "ĠBrazil": 6961,
      "ovascular": 6962,
      "Ġshif": 6963,
      "ĠBefore": 6964,
      "Ġpreparation": 6965,
      "-T": 6966,
      "Ġexplanation": 6967,
      "Ġlearners": 6968,
      "âĢĻ.": 6969,
      "ounter": 6970,
      "Ġroles": 6971,
      "ĠResources": 6972,
      "ĠClin": 6973,
      "orical": 6974,
      "Ġtroops": 6975,
      "mes": 6976,
      "Ġthanks": 6977,
      "Ġarrange": 6978,
      "ĠVictor": 6979,
      "ctor": 6980,
      "Ġrealize": 6981,
      "Ġguidance": 6982,
      "eenth": 6983,
      "Ġske": 6984,
      "IR": 6985,
      "hent": 6986,
      "Ġlegislation": 6987,
      "ĠChicago": 6988,
      "ĠTV": 6989,
      "Ġvisitors": 6990,
      "Ġflower": 6991,
      "ki": 6992,
      "Ġvictims": 6993,
      "Ġholding": 6994,
      "Ġconstructed": 6995,
      "Ġexcessive": 6996,
      "Ġdrawn": 6997,
      "Ġpestic": 6998,
      "Ġbiology": 6999,
      "Ġgalax": 7000,
      "ishment": 7001,
      "Ġpra": 7002,
      "Ġangle": 7003,
      "Ġheating": 7004,
      "ĠAge": 7005,
      "Ġproven": 7006,
      "Ġring": 7007,
      "Ġundert": 7008,
      "ureau": 7009,
      "Ġcircle": 7010,
      "ĠBrown": 7011,
      "Ġreceiving": 7012,
      "Ġbanks": 7013,
      "occ": 7014,
      "ulty": 7015,
      "Ġsole": 7016,
      "Ġmoves": 7017,
      "Ġtreating": 7018,
      "ĠCre": 7019,
      "Ġcopper": 7020,
      "Ġlights": 7021,
      "rowing": 7022,
      "Ġswitch": 7023,
      "Ġscientist": 7024,
      "Ġmessages": 7025,
      "plant": 7026,
      "Ġgenet": 7027,
      "Ġvideos": 7028,
      "Ġcolumn": 7029,
      "aska": 7030,
      "Ġdollars": 7031,
      "gs": 7032,
      "Ġexamination": 7033,
      "Ġcategory": 7034,
      "Ġapproved": 7035,
      "Ġparas": 7036,
      "Ġcontrovers": 7037,
      "Ġtheories": 7038,
      "ĠFamily": 7039,
      "hyd": 7040,
      "Ġparticipation": 7041,
      "Ġbigger": 7042,
      "Ġille": 7043,
      "ĠAtlantic": 7044,
      "ĠEqu": 7045,
      "Ġcomfortable": 7046,
      "itt": 7047,
      "ĠAgency": 7048,
      "IA": 7049,
      "ĠSol": 7050,
      "Ġformula": 7051,
      "ĠFort": 7052,
      "wing": 7053,
      "Ġpresents": 7054,
      "Ġmatters": 7055,
      "-cont": 7056,
      "Ġboy": 7057,
      "uh": 7058,
      "Ġmic": 7059,
      "Ġstre": 7060,
      "Ġbreed": 7061,
      "HD": 7062,
      "Ġmixt": 7063,
      "-scale": 7064,
      "Ġsignificance": 7065,
      "ĠSet": 7066,
      "Ġturb": 7067,
      "Ġfurn": 7068,
      "otes": 7069,
      "aired": 7070,
      "Ġpowers": 7071,
      "azine": 7072,
      "ĠCreat": 7073,
      "agraph": 7074,
      "Ġseeking": 7075,
      "heric": 7076,
      "ĠCap": 7077,
      "Ġshock": 7078,
      "Go": 7079,
      "Ġreven": 7080,
      "ocation": 7081,
      "ĠServices": 7082,
      "aming": 7083,
      "Don": 7084,
      "Ġcomposed": 7085,
      "Ġlaunch": 7086,
      "________": 7087,
      "zheimer": 7088,
      "Ġstreet": 7089,
      "Ġadvert": 7090,
      "sts": 7091,
      "Ġinnovation": 7092,
      "Ġpeak": 7093,
      "Ġlake": 7094,
      "ĠMoon": 7095,
      "adder": 7096,
      "Ġpublication": 7097,
      "?âĢĿ": 7098,
      "raining": 7099,
      "ĠEastern": 7100,
      "how": 7101,
      "oples": 7102,
      "Ġaccuracy": 7103,
      "rene": 7104,
      "Ġcommitted": 7105,
      "ala": 7106,
      "Ġdisaster": 7107,
      "People": 7108,
      "ĠList": 7109,
      "Ġstatistics": 7110,
      "Ġroughly": 7111,
      "gments": 7112,
      "Ġhappening": 7113,
      "Ġrank": 7114,
      "Ġassociation": 7115,
      "aded": 7116,
      "riend": 7117,
      "Ġcareful": 7118,
      "Ġconsidering": 7119,
      "Ġmetabol": 7120,
      "ĠTimes": 7121,
      "Ġbeauty": 7122,
      "lv": 7123,
      "estion": 7124,
      "Ġrarely": 7125,
      "arsh": 7126,
      "CA": 7127,
      "Ġemployed": 7128,
      "eren": 7129,
      "col": 7130,
      "Ġitem": 7131,
      "Ġmathematics": 7132,
      "Ġserving": 7133,
      "Ġtrigger": 7134,
      "aph": 7135,
      "Ġconsume": 7136,
      "Ġsport": 7137,
      "Ġteams": 7138,
      "ĠStr": 7139,
      "Ġdivision": 7140,
      "ĠCommittee": 7141,
      "Ġtheore": 7142,
      "Ġunusual": 7143,
      "Ġfairly": 7144,
      "Ġowner": 7145,
      "ĠMichael": 7146,
      "ĠRichard": 7147,
      "Ġrelation": 7148,
      "itals": 7149,
      "Ġstronger": 7150,
      "Ġoverw": 7151,
      "Ġanywhere": 7152,
      "ĠIrish": 7153,
      "aning": 7154,
      "fit": 7155,
      "Ġmineral": 7156,
      "Ġhazard": 7157,
      "Ġpassage": 7158,
      "IM": 7159,
      "ĠEth": 7160,
      "Ġfulf": 7161,
      "rieved": 7162,
      "ĠLearn": 7163,
      "ĠThough": 7164,
      "charge": 7165,
      "outs": 7166,
      "ĠAst": 7167,
      "Ġscore": 7168,
      "ugh": 7169,
      "-ch": 7170,
      "Ġholes": 7171,
      "Ġhorses": 7172,
      "Ġplus": 7173,
      "Ġantibiotics": 7174,
      "Ġhonor": 7175,
      "ihood": 7176,
      "oven": 7177,
      "Ġliteracy": 7178,
      "Ġamazing": 7179,
      "Ġstrongly": 7180,
      "oir": 7181,
      "Ġinfluenced": 7182,
      "ĠAdv": 7183,
      "ĠOpen": 7184,
      "gu": 7185,
      "Ġphenomenon": 7186,
      "Ġsilver": 7187,
      "cking": 7188,
      "Ġfung": 7189,
      "Me": 7190,
      "Ġknowing": 7191,
      "ooking": 7192,
      "emia": 7193,
      "Ġcompris": 7194,
      "Ġdetection": 7195,
      "ĠAcc": 7196,
      ".A": 7197,
      "Ġbranches": 7198,
      "Ġsession": 7199,
      "Ġessentially": 7200,
      "Ġgradually": 7201,
      "ivered": 7202,
      "Ġbringing": 7203,
      "Ã¼": 7204,
      "ih": 7205,
      "Ġdeeper": 7206,
      "Ġvitamins": 7207,
      "Ġorient": 7208,
      "Ġencouraged": 7209,
      "ĠPlant": 7210,
      "Ġsunlight": 7211,
      "Ġdrought": 7212,
      "Ġminute": 7213,
      "avery": 7214,
      "Ġdistributed": 7215,
      "Ġnone": 7216,
      "Ġimagine": 7217,
      "ĠChange": 7218,
      "igue": 7219,
      "Ġnitrogen": 7220,
      "Ġspectrum": 7221,
      "Ġpositions": 7222,
      "aud": 7223,
      "Ġvariables": 7224,
      "Ġcyber": 7225,
      "apse": 7226,
      "Ġdealing": 7227,
      "Ġdefect": 7228,
      "Ġspin": 7229,
      "ĠItalian": 7230,
      "rav": 7231,
      "Ġislands": 7232,
      "Ġentered": 7233,
      "Ġprovider": 7234,
      "UT": 7235,
      "ady": 7236,
      "orders": 7237,
      "Ġcriteria": 7238,
      "Ġpassing": 7239,
      "Ġtransp": 7240,
      "Ġdose": 7241,
      "Ġmortality": 7242,
      "pan": 7243,
      "Ġpanel": 7244,
      "Ġschedule": 7245,
      "Ġdesired": 7246,
      "Ġgro": 7247,
      "Ġsomewhat": 7248,
      "rane": 7249,
      "olesc": 7250,
      "Ġgrid": 7251,
      "cycl": 7252,
      "Ġgrows": 7253,
      "Ġstrict": 7254,
      "Ġengineers": 7255,
      "ĠAsian": 7256,
      "Or": 7257,
      "Ġcomplications": 7258,
      "Ġtransact": 7259,
      "Ġremoval": 7260,
      "ĠWord": 7261,
      "Ġprinting": 7262,
      "ĠZeal": 7263,
      "Ġroads": 7264,
      "amination": 7265,
      "Ġbrows": 7266,
      "Ġfishing": 7267,
      "Ġengaged": 7268,
      "Ġtropical": 7269,
      "Ġuncertain": 7270,
      "iability": 7271,
      "Ġchlor": 7272,
      "Ġprinted": 7273,
      "ĠSym": 7274,
      "Ġvocabulary": 7275,
      "Ġhealing": 7276,
      "Ġdeclared": 7277,
      "Ġphysician": 7278,
      "Ġevolved": 7279,
      "ioxid": 7280,
      "PR": 7281,
      "Ġsenior": 7282,
      "Ġrecover": 7283,
      "Ġlistening": 7284,
      "ounce": 7285,
      "Ġdisrupt": 7286,
      "Ġouter": 7287,
      "Ġcarrying": 7288,
      "âĢľWe": 7289,
      "ml": 7290,
      "ollowing": 7291,
      "Ġlungs": 7292,
      "Ġcommission": 7293,
      "Ġadds": 7294,
      "Ġfalls": 7295,
      "Ġeliminate": 7296,
      "ogether": 7297,
      "arents": 7298,
      "Ġeffectiveness": 7299,
      "ĠKingdom": 7300,
      "Ġdiscrimination": 7301,
      "Ġmolecular": 7302,
      "-r": 7303,
      "Ġhoney": 7304,
      "Ġfourth": 7305,
      "Ġoutcome": 7306,
      "herent": 7307,
      "Ġserves": 7308,
      "ĠCentre": 7309,
      "igate": 7310,
      "ĠAccess": 7311,
      "Ġimplemented": 7312,
      "ĠWindows": 7313,
      "-qu": 7314,
      "Ġforg": 7315,
      "Ġagreed": 7316,
      "ĠPlease": 7317,
      "Ġcrim": 7318,
      "Ġdecor": 7319,
      "Ġempt": 7320,
      "Ġdepart": 7321,
      "Ġescape": 7322,
      "Ġdefe": 7323,
      "Ġscreening": 7324,
      "Ġimplications": 7325,
      "esides": 7326,
      "Ġcontemporary": 7327,
      "Ġaband": 7328,
      "Ġdependent": 7329,
      "chen": 7330,
      "Ġcoron": 7331,
      "Ġdestruction": 7332,
      "Ġsales": 7333,
      "Ġsharp": 7334,
      "rox": 7335,
      "Ġconfirmed": 7336,
      "@example": 7337,
      "-cl": 7338,
      "ommod": 7339,
      "ĠDistrict": 7340,
      "ĠSil": 7341,
      "Ġcompound": 7342,
      "ĠNetwork": 7343,
      "forcement": 7344,
      "Ġprocessed": 7345,
      "Ġexperiencing": 7346,
      "Ġremind": 7347,
      "Ġathlet": 7348,
      "OL": 7349,
      "Ġmarks": 7350,
      "ĠAlzheimer": 7351,
      "ograp": 7352,
      "Ġneighborhood": 7353,
      "ĠZealand": 7354,
      "CE": 7355,
      "ortion": 7356,
      "bles": 7357,
      "ĠDoes": 7358,
      "Ġnewly": 7359,
      "Ġacute": 7360,
      "Ġobserve": 7361,
      "Ġslavery": 7362,
      "amine": 7363,
      "Ġwound": 7364,
      "ĠAdministration": 7365,
      "Ġinnovative": 7366,
      "ĠDirector": 7367,
      "Ġdomain": 7368,
      "mers": 7369,
      "Ġcombat": 7370,
      "Ġbees": 7371,
      "ĠCommunity": 7372,
      "Ġintellectual": 7373,
      "Ġcaptured": 7374,
      "Ġracial": 7375,
      "ucky": 7376,
      "Ġinher": 7377,
      "inson": 7378,
      "Ġmold": 7379,
      "Ġclar": 7380,
      "Ġfinished": 7381,
      "-being": 7382,
      "ĠMer": 7383,
      "Ġedition": 7384,
      "orph": 7385,
      "Ġwarning": 7386,
      "Ġpoem": 7387,
      "angered": 7388,
      "Ġcrew": 7389,
      "Ġmaybe": 7390,
      "Ġelection": 7391,
      "ercury": 7392,
      "IDS": 7393,
      "ĠEngineering": 7394,
      "Ġdates": 7395,
      "rays": 7396,
      "Ġflour": 7397,
      "Ġmeals": 7398,
      "Ġpin": 7399,
      "Ġarray": 7400,
      "ĠRock": 7401,
      "Ġreward": 7402,
      "Ġthreats": 7403,
      "Ġfest": 7404,
      "Ġdiameter": 7405,
      "Ġorbit": 7406,
      "operation": 7407,
      "Ġparallel": 7408,
      "Ġgiant": 7409,
      "Get": 7410,
      "Ġcharacterized": 7411,
      "ĠBab": 7412,
      "Ġrobot": 7413,
      "Ġnegot": 7414,
      "ipedia": 7415,
      "yal": 7416,
      "gien": 7417,
      "Ġstores": 7418,
      "ĠPub": 7419,
      "Ġton": 7420,
      "ĠMartin": 7421,
      "etime": 7422,
      "Ġmosquit": 7423,
      "Ġtowns": 7424,
      "Ġdelivered": 7425,
      "rey": 7426,
      "Ġsigned": 7427,
      "Ġproof": 7428,
      "ĠAdditionally": 7429,
      "Ġtrends": 7430,
      "Ġinsert": 7431,
      "Ġattempts": 7432,
      "Ġautism": 7433,
      "Ġindicated": 7434,
      "Ġfed": 7435,
      "iral": 7436,
      "ĠType": 7437,
      "ilation": 7438,
      "Ġdifficulties": 7439,
      "Ġplanned": 7440,
      "greg": 7441,
      "vard": 7442,
      "Ġwriters": 7443,
      "Ġremed": 7444,
      "Ġsensors": 7445,
      "Ġmicrosc": 7446,
      "Ġmeasuring": 7447,
      "ĠDar": 7448,
      "asses": 7449,
      "icing": 7450,
      "âĢ¦Ċ": 7451,
      "esis": 7452,
      "ĠMD": 7453,
      "isdom": 7454,
      "Ġforth": 7455,
      "Ġstuff": 7456,
      "ĠIndians": 7457,
      "iana": 7458,
      "ĠSpecial": 7459,
      "ĠSat": 7460,
      "Ġdecay": 7461,
      "ustain": 7462,
      "soft": 7463,
      "ildren": 7464,
      "/d": 7465,
      "Comp": 7466,
      "tles": 7467,
      "Ġearliest": 7468,
      "Ġcash": 7469,
      "Ġoldest": 7470,
      "Ġtargets": 7471,
      "About": 7472,
      "ecess": 7473,
      "RA": 7474,
      "ĠWho": 7475,
      "Ġcham": 7476,
      "ĠMath": 7477,
      "haust": 7478,
      "Ġwine": 7479,
      "coming": 7480,
      "essions": 7481,
      "Ġstead": 7482,
      "Ġrose": 7483,
      "Ġplane": 7484,
      "ontal": 7485,
      "including": 7486,
      "riz": 7487,
      "Ġgrain": 7488,
      "Ġmodified": 7489,
      "angle": 7490,
      "Ġplanting": 7491,
      "Ġgained": 7492,
      "rous": 7493,
      "OC": 7494,
      "fts": 7495,
      "Ġpy": 7496,
      "Ġbiom": 7497,
      "Ġprotecting": 7498,
      "icy": 7499,
      "ĠViet": 7500,
      "ffective": 7501,
      "Ġinteractive": 7502,
      "reated": 7503,
      "Ġvaccines": 7504,
      "Ġresearcher": 7505,
      "Ġdriver": 7506,
      "Ġgrant": 7507,
      "NS": 7508,
      "oga": 7509,
      "Ġfaced": 7510,
      "ĠHy": 7511,
      "abil": 7512,
      "Ġinformed": 7513,
      "ĠSafety": 7514,
      "ĠNaz": 7515,
      "Ġsail": 7516,
      "âĢĶthe": 7517,
      "Ġsitting": 7518,
      "ĠHoly": 7519,
      "\"The": 7520,
      "osh": 7521,
      "ĠSecurity": 7522,
      "Ġhusband": 7523,
      "Ġcorrectly": 7524,
      "Ġinitially": 7525,
      "Figure": 7526,
      "Ġnob": 7527,
      "Ġsmell": 7528,
      "ĠStart": 7529,
      "Ġpandemic": 7530,
      "Ġmaintained": 7531,
      "ĠYoung": 7532,
      "Ġinn": 7533,
      "Ġpit": 7534,
      "ĠAP": 7535,
      "Ġflows": 7536,
      "Ġinfant": 7537,
      "Ġsubt": 7538,
      "IG": 7539,
      "ĠDespite": 7540,
      "ptions": 7541,
      "Ġweapons": 7542,
      "Ġprominent": 7543,
      "oston": 7544,
      "Ġinspired": 7545,
      "Ġusual": 7546,
      "Ġassume": 7547,
      "Ġscar": 7548,
      "Ġcorner": 7549,
      "Ã³": 7550,
      "Ġsought": 7551,
      "abeth": 7552,
      "incol": 7553,
      "Ġwheel": 7554,
      "Ġaged": 7555,
      "Ġdynamic": 7556,
      "ruption": 7557,
      "ĠNon": 7558,
      "Ġcancers": 7559,
      "-v": 7560,
      "Ġlie": 7561,
      "ĠDen": 7562,
      "ricts": 7563,
      "ĠScotland": 7564,
      "ĠOhio": 7565,
      "ĠColumbia": 7566,
      "Ġworst": 7567,
      "Ġgases": 7568,
      "Ġhosp": 7569,
      "Ġproportion": 7570,
      "Ġfatty": 7571,
      "Ġeducators": 7572,
      "'m": 7573,
      "Ġstructural": 7574,
      "Ġcarbohyd": 7575,
      "ĠProp": 7576,
      "Ġconfig": 7577,
      "Ġexamined": 7578,
      "Ġseemed": 7579,
      "Ġcaught": 7580,
      "Ġstrengthen": 7581,
      "ĠIndust": 7582,
      "Ġaffecting": 7583,
      "Ġrab": 7584,
      "amples": 7585,
      "Ġbeings": 7586,
      "Ġwindows": 7587,
      "ĠSwed": 7588,
      "Ġneu": 7589,
      "Ġabilities": 7590,
      "Ġrac": 7591,
      "ĠAngel": 7592,
      "Ġsacr": 7593,
      "mia": 7594,
      "ĠPrevention": 7595,
      "Ġsupplements": 7596,
      "Ġdecreased": 7597,
      "ano": 7598,
      "Ġthermal": 7599,
      "allow": 7600,
      "ĠMoreover": 7601,
      "Ġsuscept": 7602,
      "Ġidentifying": 7603,
      "Ġunw": 7604,
      "ĠHill": 7605,
      "Ġcooling": 7606,
      "Ġfats": 7607,
      "Ġerrors": 7608,
      "igare": 7609,
      "Ġoccurring": 7610,
      "ĠLess": 7611,
      "Ġmanufacturers": 7612,
      "Ġstations": 7613,
      "Ġphosph": 7614,
      "Ġheavily": 7615,
      "ĠResp": 7616,
      "Ġacres": 7617,
      "Ġreaching": 7618,
      "Ġanalys": 7619,
      "ĠFind": 7620,
      "Ġobjectives": 7621,
      "ĠCoast": 7622,
      "ĠLar": 7623,
      "Ġstatements": 7624,
      "Ġreveal": 7625,
      "Ġbranch": 7626,
      "Ġenables": 7627,
      "Ġoutd": 7628,
      "ĠMel": 7629,
      "Am": 7630,
      "Ġneither": 7631,
      "Ġautomatically": 7632,
      "ĠTry": 7633,
      "Ġhardware": 7634,
      "ostic": 7635,
      "-G": 7636,
      "Ġprogramme": 7637,
      "ĠIns": 7638,
      "Ġsubsequent": 7639,
      "Ġprincipal": 7640,
      "Ġexciting": 7641,
      "Ġopposed": 7642,
      "UN": 7643,
      "ĠEc": 7644,
      "Ġbatteries": 7645,
      "ogs": 7646,
      "uality": 7647,
      "Ġherb": 7648,
      "Ġchances": 7649,
      "unicip": 7650,
      "Ġlaser": 7651,
      "Ġfunctioning": 7652,
      "ĠAND": 7653,
      "ĠBill": 7654,
      "Ġlens": 7655,
      "Ġdetected": 7656,
      "ĠPet": 7657,
      "Ġsurge": 7658,
      "Pre": 7659,
      "Ġenorm": 7660,
      "Ġplot": 7661,
      "uits": 7662,
      "ĠHospital": 7663,
      "Ġchemistry": 7664,
      "Ġbag": 7665,
      "plete": 7666,
      "Ġseat": 7667,
      "rade": 7668,
      "ĠReading": 7669,
      "ĠSuper": 7670,
      "Ġcovering": 7671,
      "Ġnice": 7672,
      "Ġdietary": 7673,
      "ĠAmong": 7674,
      "ĠFacebook": 7675,
      "Ġrecycling": 7676,
      "Ġinequ": 7677,
      "Step": 7678,
      "asts": 7679,
      "Ġeditor": 7680,
      "ĠFund": 7681,
      "ommun": 7682,
      "Ġalph": 7683,
      "Ġsuffered": 7684,
      "Ġcriminal": 7685,
      "Ġtables": 7686,
      "rot": 7687,
      "Ġexclus": 7688,
      "Ġindigenous": 7689,
      "Ġequally": 7690,
      "Ġprotective": 7691,
      "Ġexceed": 7692,
      "Ġguard": 7693,
      "Ġanalyze": 7694,
      "Ġinterpre": 7695,
      "Ġbutton": 7696,
      "Ġwithd": 7697,
      "ĠIII": 7698,
      "Ġuniversal": 7699,
      "Ġproviders": 7700,
      "ĠOrganization": 7701,
      "Ġtraditions": 7702,
      "ĠSund": 7703,
      "Ġproved": 7704,
      "Ġphrase": 7705,
      "rical": 7706,
      "bridge": 7707,
      "pling": 7708,
      "Ġcardiovascular": 7709,
      "Ġheads": 7710,
      "Ġadvent": 7711,
      "Ġplanets": 7712,
      "CH": 7713,
      "Ġovercome": 7714,
      "Ġradical": 7715,
      "Ġcompost": 7716,
      "Ġagents": 7717,
      "Ġfinds": 7718,
      "eness": 7719,
      "She": 7720,
      "rance": 7721,
      "Ġharder": 7722,
      "onym": 7723,
      "Ġrelie": 7724,
      "Ġensuring": 7725,
      "amics": 7726,
      "ani": 7727,
      "Ġrespectively": 7728,
      "peror": 7729,
      "Ġplayer": 7730,
      "rint": 7731,
      "Ġcure": 7732,
      "Ġmir": 7733,
      "Ġpanels": 7734,
      "Ġstrain": 7735,
      "Ġcoverage": 7736,
      "Ġtelevision": 7737,
      "Ġcomputing": 7738,
      "Ġdemands": 7739,
      "ĠLow": 7740,
      "Ġmusical": 7741,
      "Ġcoc": 7742,
      "Ġlaid": 7743,
      "Ġaccompan": 7744,
      "ĠRom": 7745,
      "Ġid": 7746,
      "ĠPop": 7747,
      "urning": 7748,
      "Ġintensity": 7749,
      "uber": 7750,
      "ĠPo": 7751,
      "Ġsubstantial": 7752,
      "Ġpolar": 7753,
      "Ġrect": 7754,
      "Ġaccommod": 7755,
      "Ġtemple": 7756,
      "ulating": 7757,
      "Ġdriven": 7758,
      "Ġmixture": 7759,
      "-called": 7760,
      "oured": 7761,
      "ĠMichigan": 7762,
      "Ġtechnological": 7763,
      "opyright": 7764,
      "Ġdefense": 7765,
      "Ġwheat": 7766,
      "Ġinvestigation": 7767,
      "Ġconj": 7768,
      "istical": 7769,
      "ĠFurthermore": 7770,
      "incoln": 7771,
      "Ġexception": 7772,
      "iture": 7773,
      "Ġfuels": 7774,
      "ĠPolic": 7775,
      "ĠArctic": 7776,
      "Ġdisability": 7777,
      "ested": 7778,
      "Ġconsiderable": 7779,
      "ega": 7780,
      "ĠMS": 7781,
      "Ġimaging": 7782,
      "Ġstake": 7783,
      "etary": 7784,
      "App": 7785,
      "Ġregardless": 7786,
      "aws": 7787,
      "Ġdisabilities": 7788,
      "otal": 7789,
      "Ġstability": 7790,
      "ersonal": 7791,
      "asant": 7792,
      "atively": 7793,
      "Ġabsence": 7794,
      "ieval": 7795,
      "-known": 7796,
      "Ġassigned": 7797,
      "Ġfinger": 7798,
      "Ġurine": 7799,
      "Ġconsumed": 7800,
      "Ġdeficiency": 7801,
      "Ġmoderate": 7802,
      "Ġfarms": 7803,
      "hea": 7804,
      "Ġsatisf": 7805,
      "Ġforming": 7806,
      "ĠSign": 7807,
      "rary": 7808,
      "Ġwebsites": 7809,
      "Ġcattle": 7810,
      "Ġparagraph": 7811,
      "Ġsteam": 7812,
      "neys": 7813,
      "Per": 7814,
      "Also": 7815,
      "%)": 7816,
      "Ġengaging": 7817,
      "Ġantioxid": 7818,
      "aneously": 7819,
      "illa": 7820,
      "Ġprohib": 7821,
      "Ġintroduce": 7822,
      "ĠSup": 7823,
      "ĠParty": 7824,
      "Ġjudge": 7825,
      "apor": 7826,
      "Ġviewed": 7827,
      "Ġkeeps": 7828,
      "Ġheritage": 7829,
      "eping": 7830,
      "onom": 7831,
      "Ġjoints": 7832,
      "ĠVer": 7833,
      "EE": 7834,
      "Under": 7835,
      "Ġarrest": 7836,
      "Ġtrauma": 7837,
      "acent": 7838,
      "ĠDown": 7839,
      "ĠGrand": 7840,
      "Ġextend": 7841,
      "Ġoverwhel": 7842,
      "âĢĶand": 7843,
      "Ġmathematical": 7844,
      "uten": 7845,
      "ĠMult": 7846,
      "Ġbacterial": 7847,
      ".ht": 7848,
      "Ġcotton": 7849,
      "forest": 7850,
      "Ġupdated": 7851,
      "oli": 7852,
      "Ġcommitment": 7853,
      "Ġepis": 7854,
      "ĠCho": 7855,
      "holders": 7856,
      "Ġconsideration": 7857,
      "izabeth": 7858,
      "isco": 7859,
      "Ġfalling": 7860,
      "erly": 7861,
      "Ġgrains": 7862,
      "akistan": 7863,
      "Ġhidden": 7864,
      "AA": 7865,
      "Ġnutrient": 7866,
      "azon": 7867,
      "Last": 7868,
      "Ġproductivity": 7869,
      "Part": 7870,
      "Ġintent": 7871,
      "ptom": 7872,
      "Ġtob": 7873,
      "Ġwrites": 7874,
      "ĠCast": 7875,
      "sylv": 7876,
      "ansas": 7877,
      "ĠLib": 7878,
      "Ġcompens": 7879,
      "Ġslaves": 7880,
      "ocial": 7881,
      "Ġidentification": 7882,
      "Ġtumor": 7883,
      "just": 7884,
      "Ġmanaging": 7885,
      "Ġisolated": 7886,
      "Ġmerely": 7887,
      "Ġmountains": 7888,
      "BT": 7889,
      "Ġauthent": 7890,
      "lines": 7891,
      "eut": 7892,
      "athered": 7893,
      "Ġtong": 7894,
      "....": 7895,
      "Ġcough": 7896,
      "otype": 7897,
      "ĠProtection": 7898,
      "Ġquantity": 7899,
      "Ġconference": 7900,
      "Ã¶": 7901,
      "ĠLead": 7902,
      "Ear": 7903,
      "Ġmg": 7904,
      "-res": 7905,
      "Ġcontribution": 7906,
      "ulpt": 7907,
      "Ġweakness": 7908,
      "Ġsentences": 7909,
      "Ġadverse": 7910,
      "theless": 7911,
      "Ġquantum": 7912,
      "otherapy": 7913,
      "ima": 7914,
      "lu": 7915,
      "ĠUt": 7916,
      "Ġpeoples": 7917,
      "Ġexploration": 7918,
      "ĠClick": 7919,
      "Ġexhaust": 7920,
      "Ġadm": 7921,
      "ĠConservation": 7922,
      "Ġdance": 7923,
      "Ġresil": 7924,
      "Ġsizes": 7925,
      "Ġinterface": 7926,
      "ĠUnfortunately": 7927,
      "Before": 7928,
      "elescope": 7929,
      "ude": 7930,
      "Ġclient": 7931,
      "mm": 7932,
      "brid": 7933,
      "Ġcontainer": 7934,
      "Ġinitiative": 7935,
      "Ġceremon": 7936,
      "iary": 7937,
      "Ġstones": 7938,
      "ette": 7939,
      "Ġclaimed": 7940,
      "Ġquiet": 7941,
      "Ġpla": 7942,
      "berry": 7943,
      "Ġgirl": 7944,
      "ĠJohnson": 7945,
      "Ġfocusing": 7946,
      "ĠFire": 7947,
      "Ġconcluded": 7948,
      "words": 7949,
      "Ġliterary": 7950,
      "ĠFinally": 7951,
      "Note": 7952,
      "Ġelected": 7953,
      "ĠMen": 7954,
      "ĠWithout": 7955,
      "Ġpsychology": 7956,
      "icted": 7957,
      "ĠBoston": 7958,
      "ĠIT": 7959,
      "Ġdrivers": 7960,
      "Ġobservation": 7961,
      "rolled": 7962,
      "Ġhormones": 7963,
      "Ġtap": 7964,
      "Ġswit": 7965,
      "print": 7966,
      "Ġcort": 7967,
      "Ġdescript": 7968,
      "Ġtobacco": 7969,
      "(s": 7970,
      "Ġpreserve": 7971,
      "ĠStar": 7972,
      "eor": 7973,
      "alities": 7974,
      "ĠLiter": 7975,
      "Ġcreatures": 7976,
      "ĠÐ": 7977,
      "ĠHeart": 7978,
      "Ġconcerning": 7979,
      "Ġeru": 7980,
      "Ġdesert": 7981,
      ".gov": 7982,
      "orted": 7983,
      "Ġinsight": 7984,
      "Ġwatching": 7985,
      "HS": 7986,
      "ruit": 7987,
      "Ġcustomer": 7988,
      "Ġversions": 7989,
      "ĠPrinc": 7990,
      "Ġslave": 7991,
      "Ġbelieves": 7992,
      "ographical": 7993,
      "ĠOnline": 7994,
      "Ġdress": 7995,
      "itarian": 7996,
      "Ġvel": 7997,
      "Where": 7998,
      "Ġnarrative": 7999,
      "rin": 8000,
      "Ġemphasis": 8001,
      "imm": 8002,
      "ENT": 8003,
      "ĠNever": 8004,
      "advant": 8005,
      "onomic": 8006,
      "Ġspray": 8007,
      "Ġflexible": 8008,
      "ĠHeb": 8009,
      "icular": 8010,
      "ĠLo": 8011,
      "Ġinterpretation": 8012,
      "MP": 8013,
      "gence": 8014,
      "Ġchannel": 8015,
      "ĠDou": 8016,
      "Ġquarter": 8017,
      "sylvania": 8018,
      "itual": 8019,
      "Ġcalling": 8020,
      "ocolate": 8021,
      "Ġfatigue": 8022,
      "ĠGeorgia": 8023,
      "ĠAuthor": 8024,
      "Ġmothers": 8025,
      "ogenic": 8026,
      "Ġholiday": 8027,
      "ĠWall": 8028,
      "Ġaimed": 8029,
      "ĠCurrent": 8030,
      "ĠNote": 8031,
      "Ġbomb": 8032,
      "Ġtack": 8033,
      "].": 8034,
      "Ġlymph": 8035,
      "Ġexperimental": 8036,
      "df": 8037,
      "Ġphysically": 8038,
      "Using": 8039,
      "Ġsensor": 8040,
      "cyclop": 8041,
      "esh": 8042,
      "Ġvariation": 8043,
      "awn": 8044,
      "ĠLight": 8045,
      "Ġtransmit": 8046,
      "Ġlighting": 8047,
      "ĠVen": 8048,
      "Ġregulation": 8049,
      "ivest": 8050,
      "Le": 8051,
      "isted": 8052,
      "Ġpersonality": 8053,
      "Ġacquired": 8054,
      "Ġemerging": 8055,
      "atial": 8056,
      "Ġlock": 8057,
      "Ġmigration": 8058,
      "Ġmanager": 8059,
      "Ġmetals": 8060,
      "Ġcord": 8061,
      "ĠPot": 8062,
      "Ġadolesc": 8063,
      "Ġstyles": 8064,
      "Ġrhyth": 8065,
      "uset": 8066,
      "Ġcorrel": 8067,
      "Ġaddiction": 8068,
      "ĠColorado": 8069,
      "elfare": 8070,
      "Ġdefend": 8071,
      "Ġprofit": 8072,
      "rize": 8073,
      "Ġsafely": 8074,
      "ali": 8075,
      "Ġhence": 8076,
      "Ġflying": 8077,
      "Ġecosystems": 8078,
      "Ġhunting": 8079,
      "ĠSurvey": 8080,
      "Ġcolonial": 8081,
      "Ġspots": 8082,
      "edu": 8083,
      "ĠSand": 8084,
      "ĠThree": 8085,
      "Ġfires": 8086,
      "Ġreporting": 8087,
      "Each": 8088,
      "Ġvertical": 8089,
      "Ġwonderful": 8090,
      "lishing": 8091,
      "Ġcapabilities": 8092,
      "Ġsodium": 8093,
      "Ġexhibit": 8094,
      "vin": 8095,
      "indu": 8096,
      "Ġgum": 8097,
      "apping": 8098,
      "ĠTO": 8099,
      "uting": 8100,
      "Ġavailability": 8101,
      "Ġmanifest": 8102,
      "Ġachievement": 8103,
      "Ġol": 8104,
      "ugg": 8105,
      "ĠGr": 8106,
      "arbon": 8107,
      "Ġadvis": 8108,
      "Ġuniform": 8109,
      "Ġresid": 8110,
      "Ġsummary": 8111,
      "Ġpainful": 8112,
      "itory": 8113,
      "Ġcontributed": 8114,
      "Ġdrinks": 8115,
      "Ġshoot": 8116,
      "Ġtip": 8117,
      "Ġtick": 8118,
      "Ġfaces": 8119,
      "Ġles": 8120,
      "Ġconqu": 8121,
      "Ġperm": 8122,
      "Ġperception": 8123,
      "requ": 8124,
      "Ġlists": 8125,
      "Ġemotion": 8126,
      "/p": 8127,
      "Ġease": 8128,
      "Ġdramatic": 8129,
      "night": 8130,
      "Ġinhabit": 8131,
      "ket": 8132,
      "ĠEst": 8133,
      "Ġtrick": 8134,
      "enger": 8135,
      "ĠJul": 8136,
      "Ġdigestive": 8137,
      "Ġargue": 8138,
      "achuset": 8139,
      "Ġgranted": 8140,
      "Ġvariations": 8141,
      ")|Ċ": 8142,
      "Ġassets": 8143,
      "Ġseparated": 8144,
      "achusetts": 8145,
      "ĠMethod": 8146,
      "Ġsensitivity": 8147,
      "Ġtranslation": 8148,
      "ĠPlay": 8149,
      "\".Ċ": 8150,
      "ecific": 8151,
      "Ġimprovements": 8152,
      "Ġaddressed": 8153,
      "books": 8154,
      "Ġaudio": 8155,
      "mentia": 8156,
      "Ġsched": 8157,
      "ĠTop": 8158,
      "Ġcomprom": 8159,
      "Ġgast": 8160,
      "ols": 8161,
      "Ġcounsel": 8162,
      "Ġboundaries": 8163,
      "Ġsettlement": 8164,
      "Ġillegal": 8165,
      "ĠSecret": 8166,
      "ĠpH": 8167,
      "Ġalive": 8168,
      "iva": 8169,
      "antly": 8170,
      "alm": 8171,
      "lete": 8172,
      "ĠJeff": 8173,
      "Use": 8174,
      "Are": 8175,
      "Ġdating": 8176,
      "Ġscr": 8177,
      "Ġperforming": 8178,
      "-century": 8179,
      "Ġterror": 8180,
      "iac": 8181,
      "Ġdefinitely": 8182,
      "ĠPen": 8183,
      "ĠImm": 8184,
      "Ġconserv": 8185,
      "Ġweigh": 8186,
      "Ġvegetation": 8187,
      "Ġdairy": 8188,
      "semb": 8189,
      "-a": 8190,
      "HA": 8191,
      "Ġburied": 8192,
      "Ġorb": 8193,
      "ĠObs": 8194,
      "Ġdense": 8195,
      "Ġsustainability": 8196,
      "ĠHelp": 8197,
      "Ġirrig": 8198,
      "Ġprey": 8199,
      "hire": 8200,
      "ĠFour": 8201,
      "ĠDev": 8202,
      "ivestock": 8203,
      "Ġinterventions": 8204,
      "Ġmovie": 8205,
      "Ġnuts": 8206,
      "ĠKorea": 8207,
      "irth": 8208,
      "Ġbiodiversity": 8209,
      "ĠJo": 8210,
      "Ġdevast": 8211,
      "ipe": 8212,
      "OM": 8213,
      "Ed": 8214,
      "Ġkilling": 8215,
      "ometry": 8216,
      "ema": 8217,
      "ĠPennsylvania": 8218,
      "Ġclock": 8219,
      "Ġfeels": 8220,
      "Ġye": 8221,
      "Ġpupils": 8222,
      "Ġmine": 8223,
      "ĠBusiness": 8224,
      "TP": 8225,
      "hus": 8226,
      "eries": 8227,
      "ĠJac": 8228,
      "Ġgrades": 8229,
      "Ġexpectations": 8230,
      "Ġsubstit": 8231,
      "Ġconcentrations": 8232,
      "ĠLy": 8233,
      "Ġpets": 8234,
      "quir": 8235,
      "anger": 8236,
      "Ġgravity": 8237,
      "ython": 8238,
      "atter": 8239,
      "ĠQueen": 8240,
      "Ġven": 8241,
      "ceans": 8242,
      "Ġrepresentation": 8243,
      "Ġexpanded": 8244,
      "Ġhygien": 8245,
      "Ġagent": 8246,
      "Ġevil": 8247,
      "Ġequation": 8248,
      "Ġshed": 8249,
      "Ġneutral": 8250,
      "ĠOper": 8251,
      "bean": 8252,
      "Ġofficers": 8253,
      "ĠRetrieved": 8254,
      "rison": 8255,
      "Ġmur": 8256,
      "Ġcharacteristic": 8257,
      "Ġlip": 8258,
      "ĠUr": 8259,
      "ĠTom": 8260,
      "ĠSimilar": 8261,
      "Ġfellow": 8262,
      "Ġcraft": 8263,
      "Ġbalanced": 8264,
      "ĠIslam": 8265,
      "Ġspoken": 8266,
      "aren": 8267,
      "Ġlosses": 8268,
      "ĠLaboratory": 8269,
      "Ġclassified": 8270,
      "ĠHand": 8271,
      "Ġspacecraft": 8272,
      "Ġom": 8273,
      "Ġembra": 8274,
      "ĠAssess": 8275,
      "Ġentertain": 8276,
      "Ġaging": 8277,
      "ĠEp": 8278,
      "Ġexecutive": 8279,
      "Ġcelebrated": 8280,
      "Ġbehavioral": 8281,
      "last": 8282,
      "ouds": 8283,
      "ĠBlue": 8284,
      "Ġsaving": 8285,
      "Ġpoetry": 8286,
      "iat": 8287,
      "htt": 8288,
      "zym": 8289,
      "Ġremoving": 8290,
      "ĠDutch": 8291,
      "ĠLincoln": 8292,
      "Ġsimult": 8293,
      "omers": 8294,
      "Ġorange": 8295,
      "ĠKids": 8296,
      "Ġtaxes": 8297,
      "Ġcharged": 8298,
      "fulness": 8299,
      "Ġsymbols": 8300,
      "ĠHawai": 8301,
      "Ġhouseholds": 8302,
      "Ġvisited": 8303,
      "erally": 8304,
      "eting": 8305,
      "Ġthroat": 8306,
      "Ġinvestigate": 8307,
      "Ġpriority": 8308,
      "ĠPakistan": 8309,
      "ashes": 8310,
      "Ġcommunications": 8311,
      "Ġremarkable": 8312,
      "Ġproceed": 8313,
      "Cons": 8314,
      "uum": 8315,
      "Ġstopped": 8316,
      "ĠAvoid": 8317,
      "Ġmedicines": 8318,
      "Ġscores": 8319,
      "Ġcelebrate": 8320,
      "Ġdifferently": 8321,
      "Ġwider": 8322,
      "Ġtemporary": 8323,
      "Ġattach": 8324,
      "Ġinfants": 8325,
      "ĠRoad": 8326,
      "Ġconvert": 8327,
      "Ġenemy": 8328,
      "Ġparameters": 8329,
      "Ġampl": 8330,
      "Ġwaiting": 8331,
      "irms": 8332,
      "Hist": 8333,
      "Researchers": 8334,
      "Ġenormous": 8335,
      "Ġdimens": 8336,
      "Ġthereby": 8337,
      "ĠSupreme": 8338,
      "Ġdirections": 8339,
      "ĠAsk": 8340,
      "Ġecological": 8341,
      "Ġshaped": 8342,
      "Ġpromoting": 8343,
      "Ġdemocracy": 8344,
      "ĠSir": 8345,
      "pled": 8346,
      "bar": 8347,
      "Ġfisher": 8348,
      "Ġreverse": 8349,
      "Ġranging": 8350,
      "Ġlifetime": 8351,
      "ao": 8352,
      "ĠCat": 8353,
      "Ġtelling": 8354,
      "Ġsculpt": 8355,
      "ĠDom": 8356,
      "asy": 8357,
      "Ġentering": 8358,
      "Ġdirected": 8359,
      "Ġguess": 8360,
      "ourse": 8361,
      "Ġabsorb": 8362,
      "Ġchap": 8363,
      "Ġordinary": 8364,
      "Ġthreatened": 8365,
      "Ġears": 8366,
      "Ġworship": 8367,
      "istant": 8368,
      "ĠWildlife": 8369,
      "ĠImp": 8370,
      "Ġsocieties": 8371,
      "Ġhaven": 8372,
      "Ġabstract": 8373,
      "Ġhabitats": 8374,
      "Ġexpertise": 8375,
      "Ġcann": 8376,
      "Ġboat": 8377,
      "sor": 8378,
      "Ġgraduate": 8379,
      "ĠMassachusetts": 8380,
      "Ġlogic": 8381,
      "Med": 8382,
      "Ġsuperior": 8383,
      "ricted": 8384,
      "Ġconce": 8385,
      "Ġmyst": 8386,
      "Ġlosing": 8387,
      "Ġclothes": 8388,
      "Ġpermission": 8389,
      "Ġsplit": 8390,
      "Ġwouldn": 8391,
      "CP": 8392,
      "Ġthread": 8393,
      "Ġmarketing": 8394,
      "Ġpointed": 8395,
      "Ġapplying": 8396,
      "Ġtens": 8397,
      "iah": 8398,
      "assium": 8399,
      "ĠCorn": 8400,
      "aneous": 8401,
      "Ġnutritional": 8402,
      "Ġran": 8403,
      "Ġtor": 8404,
      "Ġspinal": 8405,
      "Ġpuzz": 8406,
      "ĠLin": 8407,
      "Ġoutbreak": 8408,
      "Ġsolving": 8409,
      "Ġassociate": 8410,
      "Ġritual": 8411,
      "Ġrecre": 8412,
      "Ġwearing": 8413,
      "Ġjuice": 8414,
      "endar": 8415,
      "Ġdies": 8416,
      "ami": 8417,
      "ĠPur": 8418,
      "ĠTim": 8419,
      "Ġatoms": 8420,
      "adow": 8421,
      "usive": 8422,
      "Ġlowest": 8423,
      "lock": 8424,
      "Ġflash": 8425,
      "ĠInit": 8426,
      "Ġhumanity": 8427,
      "neum": 8428,
      "Ġinterior": 8429,
      "esium": 8430,
      "ĠEPA": 8431,
      ":||": 8432,
      "Ġordered": 8433,
      "riendly": 8434,
      "Ġethical": 8435,
      "ĠHarvard": 8436,
      "Ġuniversities": 8437,
      "sell": 8438,
      "Ġstreets": 8439,
      "ipher": 8440,
      "Ġregarded": 8441,
      "Ġtribes": 8442,
      "agnetic": 8443,
      "ĠWay": 8444,
      "Ġwisdom": 8445,
      "Ġsessions": 8446,
      "ĠMinister": 8447,
      "EF": 8448,
      "Just": 8449,
      "ĠCross": 8450,
      "Ġplain": 8451,
      "Ġillnesses": 8452,
      "Ġfur": 8453,
      "Ġdeeply": 8454,
      "Ġbleeding": 8455,
      "Ġcas": 8456,
      "Ġbeans": 8457,
      "Ġowned": 8458,
      "ĠContin": 8459,
      "Ã¢": 8460,
      "Ġdetermining": 8461,
      "Ġarguments": 8462,
      "Ġmature": 8463,
      "erb": 8464,
      "ĠElizabeth": 8465,
      "-con": 8466,
      "Ġlibr": 8467,
      "Ġtransmitted": 8468,
      "yer": 8469,
      "ĠBattle": 8470,
      "una": 8471,
      "oids": 8472,
      "oys": 8473,
      "erman": 8474,
      "flamm": 8475,
      "Ġdevelops": 8476,
      "Learn": 8477,
      "Ġcow": 8478,
      "Ġforecast": 8479,
      "Ġworkplace": 8480,
      "ician": 8481,
      "Ġscope": 8482,
      "oves": 8483,
      "adel": 8484,
      "Ġglobe": 8485,
      "ĠPoint": 8486,
      "Ġteens": 8487,
      "Ġspecialist": 8488,
      "ishop": 8489,
      "ĠColl": 8490,
      "IF": 8491,
      "Ġdim": 8492,
      "asma": 8493,
      "Ġminds": 8494,
      "Ġcub": 8495,
      "amps": 8496,
      "Ġcolonies": 8497,
      "izz": 8498,
      "avirus": 8499,
      "uther": 8500,
      "ĠLast": 8501,
      "Ġthesis": 8502,
      "Ġdiarr": 8503,
      "Ġcrypt": 8504,
      "ĠBack": 8505,
      "ĠCir": 8506,
      "ĠUV": 8507,
      "ĠHebrew": 8508,
      "Who": 8509,
      "Ġpill": 8510,
      "Ġmanual": 8511,
      "Ġtraits": 8512,
      "ĠChristians": 8513,
      "Ġexploring": 8514,
      "Ġchair": 8515,
      "Ġpreferred": 8516,
      "Ġfought": 8517,
      "Ġhall": 8518,
      "Ġengines": 8519,
      "Ġbarriers": 8520,
      "ĠIce": 8521,
      "Ġduty": 8522,
      "ĠSar": 8523,
      "ĠAM": 8524,
      "ĠSystems": 8525,
      "-ex": 8526,
      "ĠMot": 8527,
      "Ġcreativity": 8528,
      "Ġphotographs": 8529,
      "Ġasp": 8530,
      "Ġspan": 8531,
      "iger": 8532,
      "gon": 8533,
      "Ġempty": 8534,
      "Ġcalculate": 8535,
      "Ġpreced": 8536,
      "Ġgardens": 8537,
      "lymp": 8538,
      "Ġgly": 8539,
      "Ġresistant": 8540,
      "ĠIdent": 8541,
      "Ġpilot": 8542,
      "Col": 8543,
      "Ġpassion": 8544,
      "onday": 8545,
      "Ġplanted": 8546,
      "-making": 8547,
      "Ġdominant": 8548,
      "arming": 8549,
      "Ġloose": 8550,
      "Ġsavings": 8551,
      "Ġash": 8552,
      "unc": 8553,
      "Ġlinear": 8554,
      "erts": 8555,
      "Ġdistricts": 8556,
      "ĠVitamin": 8557,
      "',": 8558,
      "ĠAR": 8559,
      "-en": 8560,
      "Ġevening": 8561,
      "izers": 8562,
      "ĠIslands": 8563,
      "oons": 8564,
      "ĠSolar": 8565,
      "ĠMah": 8566,
      "va": 8567,
      "Ġcul": 8568,
      "Ġasc": 8569,
      "Ġverb": 8570,
      "Â®": 8571,
      "Ġsettled": 8572,
      "Ġsad": 8573,
      "play": 8574,
      "Ġelsewhere": 8575,
      "Ġattribut": 8576,
      "Ġham": 8577,
      "ĠProcess": 8578,
      "Ġextension": 8579,
      "Ġequality": 8580,
      "Ġsug": 8581,
      "Ġaggressive": 8582,
      "ĠTre": 8583,
      "hemistry": 8584,
      "ĠLevel": 8585,
      "Ġsaved": 8586,
      "EO": 8587,
      "Ġdegrad": 8588,
      "usalem": 8589,
      "Ref": 8590,
      "Ġcontributions": 8591,
      "ura": 8592,
      "Ġactively": 8593,
      "Ġorigins": 8594,
      "Ġreaches": 8595,
      "ĠHT": 8596,
      "Ġadapted": 8597,
      "Ġfriendly": 8598,
      "opher": 8599,
      "/c": 8600,
      "idal": 8601,
      "Ġduration": 8602,
      "Ġtargeted": 8603,
      "Despite": 8604,
      "Ġmembrane": 8605,
      "Ġhandling": 8606,
      "ĠSS": 8607,
      "ĠNov": 8608,
      "DS": 8609,
      "Ġraising": 8610,
      "Ġbreaks": 8611,
      "Ġtrem": 8612,
      "ĠHead": 8613,
      "Sim": 8614,
      "Ġfo": 8615,
      "Ġclassical": 8616,
      "rypt": 8617,
      "Ġpace": 8618,
      "Ġmeaningful": 8619,
      "ĠCell": 8620,
      "ĠOxford": 8621,
      "Ġconvey": 8622,
      "ĠBang": 8623,
      "Ġcalculated": 8624,
      "Please": 8625,
      "ĠAgriculture": 8626,
      "Ġbee": 8627,
      "archy": 8628,
      "ĠModel": 8629,
      "-N": 8630,
      "unct": 8631,
      "Ġassignment": 8632,
      "Ġofficer": 8633,
      "CR": 8634,
      "Ġpion": 8635,
      "ĠIran": 8636,
      "ĠHor": 8637,
      "Ġpropag": 8638,
      "Ġviral": 8639,
      "Ġpeer": 8640,
      "Ġchoosing": 8641,
      "-W": 8642,
      "Ġfet": 8643,
      "Ġbare": 8644,
      "Ġvegetable": 8645,
      "Ġshorter": 8646,
      "Ġcoat": 8647,
      "Ġpowder": 8648,
      "ranean": 8649,
      "Ġspecialized": 8650,
      "Ġannually": 8651,
      "ĠEdward": 8652,
      "ĠKar": 8653,
      "Ġhospitals": 8654,
      "Ġoverview": 8655,
      "Ġconverted": 8656,
      "Ġclassic": 8657,
      "Source": 8658,
      "Ġunion": 8659,
      "Ġintegration": 8660,
      "Ġsou": 8661,
      "utation": 8662,
      "Ġmarg": 8663,
      "John": 8664,
      "ĠRh": 8665,
      "astics": 8666,
      "ĠChapter": 8667,
      "Ġfunded": 8668,
      "Ġrestore": 8669,
      "Ġrequirement": 8670,
      "Ġcirculation": 8671,
      "Ġswelling": 8672,
      "Ġconclus": 8673,
      "Ġinsights": 8674,
      "Ġbreaking": 8675,
      "ĠPolicy": 8676,
      "ĠModern": 8677,
      "Ġcheap": 8678,
      "Ġclay": 8679,
      "Ġclients": 8680,
      "Ġprofile": 8681,
      "Ġincident": 8682,
      "ĠBul": 8683,
      "Like": 8684,
      "ĠPDF": 8685,
      "kind": 8686,
      "Ġpromise": 8687,
      "Ġbasically": 8688,
      "Ġpel": 8689,
      "ĠIV": 8690,
      "iments": 8691,
      "Ġroyal": 8692,
      "Ġsoils": 8693,
      "Ġfrust": 8694,
      "ĠAmazon": 8695,
      "Ġnom": 8696,
      "Ġgent": 8697,
      "ĠLittle": 8698,
      "Ġliterally": 8699,
      "Ġnoticed": 8700,
      "Ġdiffer": 8701,
      "Ġchicken": 8702,
      "Ġchose": 8703,
      "lamic": 8704,
      "Ġcontrolling": 8705,
      "Ġvaries": 8706,
      "Ġnewspaper": 8707,
      "Ġarthritis": 8708,
      "ĠFar": 8709,
      "apes": 8710,
      "ĠPM": 8711,
      "Ġtongue": 8712,
      "ĠSunday": 8713,
      "Ġvirtually": 8714,
      "ĠForce": 8715,
      "ĠArts": 8716,
      "reens": 8717,
      "ĠDivision": 8718,
      "Ġcrown": 8719,
      "Ġreplacement": 8720,
      "ogy": 8721,
      "ĠGulf": 8722,
      "Ġengagement": 8723,
      "rh": 8724,
      "Ġrational": 8725,
      "erty": 8726,
      "Ġaddresses": 8727,
      "urches": 8728,
      "ĠKey": 8729,
      "Ġunn": 8730,
      "Ġtone": 8731,
      "ĠDrug": 8732,
      "-ray": 8733,
      "Ġscenario": 8734,
      "box": 8735,
      "Ġphones": 8736,
      "Ġattitude": 8737,
      "real": 8738,
      "Ġexped": 8739,
      "ilst": 8740,
      "ĠCard": 8741,
      "obile": 8742,
      "Ġvan": 8743,
      "rection": 8744,
      "Ġcurrency": 8745,
      "imp": 8746,
      "Ġsongs": 8747,
      "ĠIncre": 8748,
      "olves": 8749,
      "Ġcontinuing": 8750,
      "Ġencounter": 8751,
      "-shaped": 8752,
      "Ġreasonable": 8753,
      "rix": 8754,
      "ĠView": 8755,
      "icating": 8756,
      "Ġstreams": 8757,
      "Ġaccompanied": 8758,
      "Ġmouse": 8759,
      "Ġemerged": 8760,
      "Ġalign": 8761,
      "iop": 8762,
      "Ġwash": 8763,
      "ett": 8764,
      "zyme": 8765,
      "rub": 8766,
      "Ġwal": 8767,
      "Ġresc": 8768,
      "chnology": 8769,
      "Ġgathered": 8770,
      "ologically": 8771,
      "Ġreferences": 8772,
      "kl": 8773,
      "Ġsevent": 8774,
      "Com": 8775,
      "Ġoccas": 8776,
      "Ġdisadvant": 8777,
      "Students": 8778,
      "asm": 8779,
      "Ġmammals": 8780,
      "Scient": 8781,
      "cule": 8782,
      "Ġaccurately": 8783,
      "Ġhat": 8784,
      "abling": 8785,
      "chain": 8786,
      "umer": 8787,
      "Ġpairs": 8788,
      "ĠSpring": 8789,
      "ĠAL": 8790,
      "Ġtends": 8791,
      "Ġappointed": 8792,
      "Ġoutdoor": 8793,
      "Ġpreparing": 8794,
      "top": 8795,
      "sm": 8796,
      "Ġfacilitate": 8797,
      "Ġtomat": 8798,
      "Ġviolent": 8799,
      "Ġdil": 8800,
      "Ġoxid": 8801,
      "ĠFrancisco": 8802,
      "Ġcaps": 8803,
      "ĠJerusalem": 8804,
      "Ġpurchased": 8805,
      "Ġsulf": 8806,
      "Two": 8807,
      "rained": 8808,
      "Ġbears": 8809,
      "Ġsurgical": 8810,
      "yr": 8811,
      "unning": 8812,
      "Ġgenome": 8813,
      "Ġanticip": 8814,
      "Ġfascinating": 8815,
      "ĠConfed": 8816,
      "endment": 8817,
      "ometric": 8818,
      "ĠPalest": 8819,
      "Ġlivestock": 8820,
      "Ġinch": 8821,
      "Ġreveals": 8822,
      "Ġoptimal": 8823,
      "emb": 8824,
      "%,": 8825,
      "Ġcouldn": 8826,
      "Ġworksheets": 8827,
      "Ġdefault": 8828,
      "urable": 8829,
      "Ġprescribed": 8830,
      "/m": 8831,
      "ori": 8832,
      "Ġeleph": 8833,
      "ĠWriting": 8834,
      "ĠWil": 8835,
      "Ġinh": 8836,
      "ĠIndones": 8837,
      "ensed": 8838,
      "amil": 8839,
      "Ġpaintings": 8840,
      "Ġposts": 8841,
      "ĠÂ©": 8842,
      "Ġseriously": 8843,
      "ailed": 8844,
      "Ġbless": 8845,
      "Ġsoul": 8846,
      "ĠEr": 8847,
      "Ġsoph": 8848,
      "roud": 8849,
      "Ġoils": 8850,
      "inois": 8851,
      "ĠPhot": 8852,
      "ĠDictionary": 8853,
      "Ġchromos": 8854,
      "Ġglac": 8855,
      "orrect": 8856,
      "ĠAnalysis": 8857,
      "Ġcontents": 8858,
      "ippi": 8859,
      "ĠLED": 8860,
      "ĠFact": 8861,
      "Ġbuff": 8862,
      "Ġprovince": 8863,
      "akespe": 8864,
      "Ġintegr": 8865,
      "ĠWikipedia": 8866,
      "Ġho": 8867,
      "ĠDO": 8868,
      "Ġrestoration": 8869,
      "eeding": 8870,
      "Ġpaying": 8871,
      "ĠStan": 8872,
      "Ġmunicip": 8873,
      "Ġsciences": 8874,
      "Ġwat": 8875,
      "orig": 8876,
      "Ġversus": 8877,
      "Ġbegun": 8878,
      "Ġdiscussions": 8879,
      "inning": 8880,
      "ĠLee": 8881,
      "Ġauto": 8882,
      "MA": 8883,
      "outheast": 8884,
      "ocity": 8885,
      "ĠOl": 8886,
      "Ġopinions": 8887,
      "Ġshore": 8888,
      "Ġacting": 8889,
      "plate": 8890,
      "aware": 8891,
      "fast": 8892,
      "ogens": 8893,
      "Ġdiets": 8894,
      "Ġattitudes": 8895,
      "sen": 8896,
      "Ġhomework": 8897,
      "Ġsup": 8898,
      "Art": 8899,
      "zo": 8900,
      "Ġbeat": 8901,
      "Ġadvances": 8902,
      "elly": 8903,
      "Ġhypothesis": 8904,
      "Ġspr": 8905,
      "ĠOlymp": 8906,
      "Ġbuying": 8907,
      "ener": 8908,
      "Ġprobability": 8909,
      "à¥": 8910,
      "assion": 8911,
      "Ġcomplexity": 8912,
      "Ġreadily": 8913,
      "arium": 8914,
      "Ġcopyright": 8915,
      "Ġrestaur": 8916,
      "Ġrealized": 8917,
      "Ġdementia": 8918,
      "Ġtrace": 8919,
      "ĠÂ£": 8920,
      "Ġthyroid": 8921,
      "Ġsuit": 8922,
      "akespeare": 8923,
      "Ġoste": 8924,
      "Ġneurons": 8925,
      "wan": 8926,
      "Ġbene": 8927,
      "onal": 8928,
      "BM": 8929,
      "Ġclub": 8930,
      "Ġvibr": 8931,
      "regon": 8932,
      "Ġlakes": 8933,
      "ĠWhich": 8934,
      "estions": 8935,
      "Ġchocolate": 8936,
      "Ġsleeping": 8937,
      "Ġdropped": 8938,
      "Ġpartnership": 8939,
      "Ġdentist": 8940,
      "ĠID": 8941,
      "also": 8942,
      "ĠTreatment": 8943,
      "ĠDigital": 8944,
      "ĠIndepend": 8945,
      "Ġtension": 8946,
      "Ġmotivation": 8947,
      "Ġoptical": 8948,
      "Ġcolony": 8949,
      "ĠFrid": 8950,
      "Ġentit": 8951,
      "Ġobst": 8952,
      "Ġhealthier": 8953,
      "Ġcompetitive": 8954,
      "elve": 8955,
      "ailable": 8956,
      "Ġion": 8957,
      "Ġenthus": 8958,
      "Ġspecified": 8959,
      "Ġseverity": 8960,
      "'d": 8961,
      "Ġembry": 8962,
      "Ġpractition": 8963,
      "Ġvaried": 8964,
      "reprene": 8965,
      "Ġtab": 8966,
      "Ġlabour": 8967,
      "you": 8968,
      "Ġimmigrants": 8969,
      "ĠCr": 8970,
      "Ġthemes": 8971,
      "zymes": 8972,
      "Ġprime": 8973,
      "ĠImpro": 8974,
      "raine": 8975,
      "Ġlimitations": 8976,
      "Ġsusceptible": 8977,
      "ĠNeed": 8978,
      "bi": 8979,
      "Ġhal": 8980,
      "Ġreturns": 8981,
      "Ġeverywhere": 8982,
      "Ġwinds": 8983,
      "Ġcorresponding": 8984,
      "Ġunderground": 8985,
      "Ġproductive": 8986,
      "Ġsoy": 8987,
      "Ġquantities": 8988,
      "Ġefficiently": 8989,
      "Ġtempor": 8990,
      "Ġknee": 8991,
      "Ġearthquake": 8992,
      "icts": 8993,
      "-inc": 8994,
      "omal": 8995,
      "ĠKent": 8996,
      "ĠMid": 8997,
      "icity": 8998,
      "ĠNO": 8999,
      "Ġsheep": 9000,
      "Ġmetabolism": 9001,
      "Ġbarrier": 9002,
      "Ġdisplayed": 9003,
      "Ġallergies": 9004,
      "Ġbrains": 9005,
      "bec": 9006,
      "ĠFather": 9007,
      "ritten": 9008,
      "encing": 9009,
      "Ġdevelopments": 9010,
      "isations": 9011,
      "Ġmaxim": 9012,
      "Ġimpair": 9013,
      "ĠWhether": 9014,
      "cin": 9015,
      "Ġdebris": 9016,
      "CL": 9017,
      "ĠGall": 9018,
      "Ġexisted": 9019,
      "iations": 9020,
      "ĠTown": 9021,
      "Ġorders": 9022,
      "operative": 9023,
      "AB": 9024,
      "Ġrecording": 9025,
      "Ġaccomplish": 9026,
      "-off": 9027,
      "Ġdeploy": 9028,
      "Ġembed": 9029,
      "Ġbeneath": 9030,
      "Ġpesticides": 9031,
      "ĠWal": 9032,
      "ĠMach": 9033,
      "Ġinvasive": 9034,
      "ĠBuilding": 9035,
      "Ġcontributing": 9036,
      "Ġparad": 9037,
      "Ġstrike": 9038,
      "Ġanger": 9039,
      "Ġglob": 9040,
      "ĠVe": 9041,
      "ĠRemember": 9042,
      "Ġprecip": 9043,
      "Ġprevalence": 9044,
      "Ġgrounds": 9045,
      "Ġargued": 9046,
      "har": 9047,
      "ptic": 9048,
      "âĢľI": 9049,
      "Ġvolunteers": 9050,
      "Ġperceived": 9051,
      "Ġdiagram": 9052,
      "Ġcooperation": 9053,
      "Ġfinish": 9054,
      "bow": 9055,
      "Ġparticle": 9056,
      "ĠMississ": 9057,
      "ĠCDC": 9058,
      "Ġalert": 9059,
      "ĠBureau": 9060,
      "Ġsees": 9061,
      "Ġapps": 9062,
      "ĠSaint": 9063,
      "Ġmask": 9064,
      "Ġrainfall": 9065,
      "BN": 9066,
      "Ġregulate": 9067,
      "ĠHeritage": 9068,
      "oded": 9069,
      "Ġsurprise": 9070,
      "Ġalgorithm": 9071,
      "rait": 9072,
      "ĠFigure": 9073,
      "ĠObama": 9074,
      "Ġelementary": 9075,
      "agan": 9076,
      "Ġevident": 9077,
      "raq": 9078,
      ".n": 9079,
      "Ke": 9080,
      "Ġmanagers": 9081,
      "Ġsuicide": 9082,
      "ĠOrig": 9083,
      "Ġprofound": 9084,
      "ĠNob": 9085,
      "Ġendangered": 9086,
      "ffe": 9087,
      "Ġinfluences": 9088,
      "Ġalumin": 9089,
      "Ġgif": 9090,
      "Ġstrategic": 9091,
      "Ġelectrons": 9092,
      "Ġassumed": 9093,
      "Ġcalm": 9094,
      "ometer": 9095,
      "ĠSmall": 9096,
      "ĠMax": 9097,
      "ĠNext": 9098,
      "ĠAgain": 9099,
      "eutic": 9100,
      "ĠBooks": 9101,
      "ifier": 9102,
      "Ġscheme": 9103,
      "ĠMicrosoft": 9104,
      "Ġhygiene": 9105,
      "Ġunlikely": 9106,
      "icking": 9107,
      "Ġaddressing": 9108,
      "Ġconversion": 9109,
      "Ġincent": 9110,
      "ĠNavy": 9111,
      "Ġcommittee": 9112,
      "Ġbibl": 9113,
      "Ġestablishment": 9114,
      "mble": 9115,
      "ĠGar": 9116,
      "Ġassembly": 9117,
      "Ġregistered": 9118,
      "ĠCP": 9119,
      "onscious": 9120,
      "Ġacknowled": 9121,
      "Ġaccounting": 9122,
      "ĠTrust": 9123,
      "hand": 9124,
      "Ġminimize": 9125,
      "Ġanalyzed": 9126,
      "Ġqualities": 9127,
      "Ġpeers": 9128,
      "stru": 9129,
      "aka": 9130,
      "Ġdiscipline": 9131,
      "uy": 9132,
      "Ġcream": 9133,
      "ĠLos": 9134,
      "worm": 9135,
      "-American": 9136,
      "ustainable": 9137,
      "ĠAlaska": 9138,
      ".'": 9139,
      "Ġputs": 9140,
      "iler": 9141,
      "ĠDesc": 9142,
      "Ġwars": 9143,
      "Ġpersu": 9144,
      "Ġpassword": 9145,
      "Ġintention": 9146,
      "Ġwelfare": 9147,
      "asting": 9148,
      "Ġceleb": 9149,
      "ĠDC": 9150,
      "ĠPhilipp": 9151,
      "Ġdramatically": 9152,
      "agen": 9153,
[...]
